{
  "version": "1.0",
  "truncation": {
    "direction": "Right",
    "max_length": 512,
    "strategy": "LongestFirst",
    "stride": 0
  },
  "padding": null,
  "added_tokens": [
    {
      "id": 0,
      "content": "[PAD]",
      "single_word": false,
      "lstrip": false,
      "rstrip": false,
      "normalized": false,
      "special": true
    },
    {
      "id": 1,
      "content": "[UNK]",
      "single_word": false,
      "lstrip": false,
      "rstrip": false,
      "normalized": false,
      "special": true
    }
  ],
  "normalizer": {
    "type": "NFC"
  },
  "pre_tokenizer": {
    "type": "ByteLevel",
    "add_prefix_space": false,
    "trim_offsets": true,
    "use_regex": true
  },
  "post_processor": null,
  "decoder": {
    "type": "ByteLevel",
    "add_prefix_space": true,
    "trim_offsets": true,
    "use_regex": true
  },
  "model": {
    "type": "BPE",
    "dropout": null,
    "unk_token": "[UNK]",
    "continuing_subword_prefix": null,
    "end_of_word_suffix": null,
    "fuse_unk": false,
    "byte_fallback": false,
    "ignore_merges": false,
    "vocab": {
      "[PAD]": 0,
      "[UNK]": 1,
      "!": 2,
      "\"": 3,
      "#": 4,
      "$": 5,
      "%": 6,
      "&": 7,
      "'": 8,
      "(": 9,
      ")": 10,
      "*": 11,
      "+": 12,
      ",": 13,
      "-": 14,
      ".": 15,
      "/": 16,
      "0": 17,
      "1": 18,
      "2": 19,
      "3": 20,
      "4": 21,
      "5": 22,
      "6": 23,
      "7": 24,
      "8": 25,
      "9": 26,
      ":": 27,
      ";": 28,
      "<": 29,
      "=": 30,
      ">": 31,
      "?": 32,
      "@": 33,
      "A": 34,
      "B": 35,
      "C": 36,
      "D": 37,
      "E": 38,
      "F": 39,
      "G": 40,
      "H": 41,
      "I": 42,
      "J": 43,
      "K": 44,
      "L": 45,
      "M": 46,
      "N": 47,
      "O": 48,
      "P": 49,
      "Q": 50,
      "R": 51,
      "S": 52,
      "T": 53,
      "U": 54,
      "V": 55,
      "W": 56,
      "X": 57,
      "Y": 58,
      "Z": 59,
      "[": 60,
      "\\": 61,
      "]": 62,
      "^": 63,
      "_": 64,
      "`": 65,
      "a": 66,
      "b": 67,
      "c": 68,
      "d": 69,
      "e": 70,
      "f": 71,
      "g": 72,
      "h": 73,
      "i": 74,
      "j": 75,
      "k": 76,
      "l": 77,
      "m": 78,
      "n": 79,
      "o": 80,
      "p": 81,
      "q": 82,
      "r": 83,
      "s": 84,
      "t": 85,
      "u": 86,
      "v": 87,
      "w": 88,
      "x": 89,
      "y": 90,
      "z": 91,
      "{": 92,
      "|": 93,
      "}": 94,
      "~": 95,
      "¡": 96,
      "¢": 97,
      "£": 98,
      "¤": 99,
      "¥": 100,
      "¦": 101,
      "§": 102,
      "¨": 103,
      "©": 104,
      "ª": 105,
      "«": 106,
      "¬": 107,
      "®": 108,
      "¯": 109,
      "°": 110,
      "±": 111,
      "²": 112,
      "³": 113,
      "´": 114,
      "µ": 115,
      "¶": 116,
      "·": 117,
      "¸": 118,
      "¹": 119,
      "º": 120,
      "»": 121,
      "¼": 122,
      "½": 123,
      "¾": 124,
      "¿": 125,
      "Â": 126,
      "Ã": 127,
      "Ä": 128,
      "Å": 129,
      "Æ": 130,
      "Ç": 131,
      "È": 132,
      "É": 133,
      "Ê": 134,
      "Ë": 135,
      "Ì": 136,
      "Í": 137,
      "Î": 138,
      "Ï": 139,
      "Ð": 140,
      "Ñ": 141,
      "Ò": 142,
      "Ó": 143,
      "Ô": 144,
      "Õ": 145,
      "Ö": 146,
      "×": 147,
      "Ø": 148,
      "Ù": 149,
      "Ú": 150,
      "Û": 151,
      "Ü": 152,
      "ß": 153,
      "à": 154,
      "á": 155,
      "â": 156,
      "ã": 157,
      "ä": 158,
      "å": 159,
      "æ": 160,
      "ç": 161,
      "è": 162,
      "é": 163,
      "ê": 164,
      "ë": 165,
      "ì": 166,
      "í": 167,
      "î": 168,
      "ï": 169,
      "ð": 170,
      "ĉ": 171,
      "Ċ": 172,
      "č": 173,
      "Ġ": 174,
      "Ģ": 175,
      "ģ": 176,
      "Ĥ": 177,
      "ĥ": 178,
      "Ħ": 179,
      "ħ": 180,
      "Ĩ": 181,
      "ĩ": 182,
      "Ī": 183,
      "ī": 184,
      "Ĭ": 185,
      "ĭ": 186,
      "Į": 187,
      "į": 188,
      "İ": 189,
      "ı": 190,
      "Ĳ": 191,
      "ĳ": 192,
      "Ĵ": 193,
      "ĵ": 194,
      "Ķ": 195,
      "ķ": 196,
      "ĸ": 197,
      "Ĺ": 198,
      "ĺ": 199,
      "Ļ": 200,
      "ļ": 201,
      "Ľ": 202,
      "ľ": 203,
      "Ŀ": 204,
      "ŀ": 205,
      "Ł": 206,
      "ł": 207,
      "Ń": 208,
      "Ġt": 209,
      "Ġa": 210,
      "he": 211,
      "in": 212,
      "re": 213,
      "on": 214,
      "Ġthe": 215,
      "Ġs": 216,
      "at": 217,
      "er": 218,
      "Ġo": 219,
      "Ġw": 220,
      "Ġc": 221,
      "en": 222,
      "it": 223,
      "or": 224,
      "es": 225,
      "is": 226,
      "nd": 227,
      "ing": 228,
      "Ġp": 229,
      "Ġb": 230,
      "Ġf": 231,
      "ou": 232,
      "an": 233,
      "Ġto": 234,
      "al": 235,
      "Ġm": 236,
      "ed": 237,
      "Ġin": 238,
      "Ġof": 239,
      "Ġand": 240,
      "Ġd": 241,
      "ar": 242,
      "le": 243,
      "ion": 244,
      "ic": 245,
      "ĠÐ": 246,
      "Ġh": 247,
      "Ġth": 248,
      "as": 249,
      "om": 250,
      "Ð¾": 251,
      "ent": 252,
      "Ġe": 253,
      "ve": 254,
      "Ġn": 255,
      "Ðµ": 256,
      "Ġbe": 257,
      "Ġl": 258,
      "us": 259,
      "ct": 260,
      "Ð°": 261,
      "ro": 262,
      "Ġg": 263,
      "Ġre": 264,
      "Ð¸": 265,
      "Ġis": 266,
      "im": 267,
      "il": 268,
      "et": 269,
      "ĠĠ": 270,
      "Ġst": 271,
      "ÑĤ": 272,
      "ĠT": 273,
      "Ġthat": 274,
      "ot": 275,
      "Ġy": 276,
      "ol": 277,
      "ch": 278,
      "id": 279,
      "ly": 280,
      "ut": 281,
      "Ñģ": 282,
      "Ð½": 283,
      "ation": 284,
      "ĠI": 285,
      "Ġon": 286,
      "ow": 287,
      "Ġfor": 288,
      "ÑĢ": 289,
      "st": 290,
      "ra": 291,
      "Ð¾Ð": 292,
      "Ġyou": 293,
      "ce": 294,
      "ay": 295,
      "ur": 296,
      "ig": 297,
      "ver": 298,
      "el": 299,
      "Ġit": 300,
      "ir": 301,
      "Ġha": 302,
      "ith": 303,
      "if": 304,
      "Ġal": 305,
      "am": 306,
      "Ġwh": 307,
      "her": 308,
      "ul": 309,
      "ĠS": 310,
      "Ġwith": 311,
      "ĠA": 312,
      "Ġpro": 313,
      "se": 314,
      "ĠThe": 315,
      "ud": 316,
      "Ġas": 317,
      "Ġcon": 318,
      "ke": 319,
      "ge": 320,
      "ld": 321,
      "Ġan": 322,
      "Ð»": 323,
      "od": 324,
      "Ġare": 325,
      "ĠC": 326,
      "Ġhe": 327,
      "Ġcan": 328,
      "un": 329,
      "op": 330,
      "ter": 331,
      "ate": 332,
      "ad": 333,
      "Ġcom": 334,
      "Ġex": 335,
      "ment": 336,
      "ĠĠĠĠ": 337,
      "ore": 338,
      "Ġwe": 339,
      "ant": 340,
      "Ġde": 341,
      "res": 342,
      "ers": 343,
      "Ġse": 344,
      "ive": 345,
      "ess": 346,
      "ill": 347,
      "Ġor": 348,
      "Ġhave": 349,
      "Ġv": 350,
      "ity": 351,
      "Ġim": 352,
      "iv": 353,
      "Ġne": 354,
      "Ġwas": 355,
      "Ġsu": 356,
      "Ġat": 357,
      "ort": 358,
      "pp": 359,
      "ĠM": 360,
      "ould": 361,
      "Ġthey": 362,
      "ect": 363,
      "os": 364,
      "ac": 365,
      "ĠW": 366,
      "Ġfr": 367,
      "'s": 368,
      "ble": 369,
      "Ñĥ": 370,
      "ies": 371,
      "Ġnot": 372,
      "igh": 373,
      "Ðº": 374,
      "ist": 375,
      "Ġle": 376,
      "ĠH": 377,
      "Ġ1": 378,
      "Ġsh": 379,
      "est": 380,
      "ome": 381,
      "ĠB": 382,
      "Ġus": 383,
      "ork": 384,
      "um": 385,
      "Ġstud": 386,
      "nt": 387,
      "qu": 388,
      "Ġch": 389,
      "Ġma": 390,
      "Ġby": 391,
      "Ġ(": 392,
      "Ġdo": 393,
      "ĠP": 394,
      "Ñı": 395,
      "Ð²": 396,
      "Ġgo": 397,
      "ents": 398,
      "ial": 399,
      "Ġfrom": 400,
      "art": 401,
      "Ġtheir": 402,
      "em": 403,
      "ure": 404,
      "Ð¼": 405,
      "oc": 406,
      "per": 407,
      "Ñĭ": 408,
      "ĠF": 409,
      "th": 410,
      "and": 411,
      "Ð´": 412,
      "ain": 413,
      "Ġr": 414,
      "end": 415,
      "âĢ": 416,
      "ther": 417,
      "ĠÐ¿": 418,
      "Ġthis": 419,
      "ions": 420,
      "ĠD": 421,
      "ÑģÑĤ": 422,
      "Ġu": 423,
      "all": 424,
      "Ġbec": 425,
      "Ġpe": 426,
      "rou": 427,
      "Ġsp": 428,
      "ide": 429,
      "Ġ2": 430,
      "ust": 431,
      "Ġcomp": 432,
      "ĠR": 433,
      "out": 434,
      "aus": 435,
      "ag": 436,
      "Ġcl": 437,
      "ical": 438,
      "Ġimp": 439,
      "ople": 440,
      "Ġmore": 441,
      "ight": 442,
      "Ġk": 443,
      "Ġwhe": 444,
      "ĠN": 445,
      "ÑĮ": 446,
      "so": 447,
      "age": 448,
      "ĠE": 449,
      "cc": 450,
      "Ġte": 451,
      "Ġ\"": 452,
      "The": 453,
      "are": 454,
      "Ġhas": 455,
      "Ġj": 456,
      "ere": 457,
      "ff": 458,
      "Ġab": 459,
      "Ġpeople": 460,
      "ĠĊ": 461,
      "ri": 462,
      "ause": 463,
      "Ġwill": 464,
      "Ġyour": 465,
      "ult": 466,
      "Ġen": 467,
      "ool": 468,
      "ard": 469,
      "ime": 470,
      "gh": 471,
      "Ġ.": 472,
      "ass": 473,
      "pt": 474,
      "og": 475,
      "ĠĠĠĠĠĠĠĠ": 476,
      "Ġall": 477,
      "Ġwork": 478,
      "one": 479,
      "Ġpl": 480,
      "our": 481,
      "ie": 482,
      "iz": 483,
      "ich": 484,
      "Ð½Ð¸": 485,
      "Ġint": 486,
      "Ġalso": 487,
      "ĠL": 488,
      "ell": 489,
      "Ġbut": 490,
      "Ġad": 491,
      "ĠÑģ": 492,
      "Ġme": 493,
      "ost": 494,
      "Ġres": 495,
      "ine": 496,
      "ĠG": 497,
      "chool": 498,
      "ike": 499,
      "Ġother": 500,
      "ated": 501,
      "act": 502,
      "ĠÐ²": 503,
      "king": 504,
      "Ñĩ": 505,
      "ĠO": 506,
      "orm": 507,
      "ations": 508,
      "Ġstudents": 509,
      "pl": 510,
      "ÑĢÐ°": 511,
      "ab": 512,
      "'t": 513,
      "Ġ,": 514,
      "ance": 515,
      "Ġbecause": 516,
      "Ð¾Ð²": 517,
      "Ġschool": 518,
      "ong": 519,
      "Ġtime": 520,
      "ĠTh": 521,
      "Ġout": 522,
      "ally": 523,
      "Ġtr": 524,
      "eth": 525,
      "Ġapp": 526,
      "ep": 527,
      "ast": 528,
      "ign": 529,
      "du": 530,
      "Ġsome": 531,
      "Ġwhich": 532,
      "Ġthem": 533,
      "ans": 534,
      "Ġwould": 535,
      "arn": 536,
      "ach": 537,
      "ip": 538,
      "ind": 539,
      "Ġinc": 540,
      "Ġhel": 541,
      "ous": 542,
      "Ġlike": 543,
      "Ġcont": 544,
      "Ġun": 545,
      "Ġta": 546,
      "Ġman": 547,
      "now": 548,
      "Ġone": 549,
      "ĠÐ¾": 550,
      "ĠU": 551,
      "very": 552,
      "Ġhis": 553,
      "Ġwho": 554,
      "Ð·": 555,
      "Ġhelp": 556,
      "vel": 557,
      "ame": 558,
      "Ġif": 559,
      "Ġfe": 560,
      "Ġour": 561,
      "Ġabout": 562,
      "Ġmy": 563,
      "form": 564,
      "ĠÐ½": 565,
      "ence": 566,
      "ose": 567,
      "00": 568,
      "ice": 569,
      "ĠIn": 570,
      "lect": 571,
      "ber": 572,
      "Ġget": 573,
      "ress": 574,
      "able": 575,
      "ear": 576,
      "Ñħ": 577,
      "ec": 578,
      "ĠIt": 579,
      "ue": 580,
      "Ġev": 581,
      "Ġ19": 582,
      "Ġwhen": 583,
      "Ġwhat": 584,
      "Ġknow": 585,
      "Ġup": 586,
      "ire": 587,
      "Ġso": 588,
      "ĠJ": 589,
      "Ġthere": 590,
      "Ġlearn": 591,
      "ays": 592,
      "ack": 593,
      "iff": 594,
      "ÑĢÐµ": 595,
      "Ġar": 596,
      "Ġact": 597,
      "Ð±": 598,
      "Ġtra": 599,
      "ary": 600,
      "Ġbet": 601,
      "ĠÐ¸": 602,
      "Ð¿": 603,
      "Ð¹": 604,
      "..": 605,
      "ition": 606,
      "ace": 607,
      "ount": 608,
      "ap": 609,
      "Ġper": 610,
      "Ġdis": 611,
      "**": 612,
      "ings": 613,
      "Ġclass": 614,
      "Ġdiff": 615,
      "Ġmake": 616,
      "ru": 617,
      "Ġsa": 618,
      "Ġnew": 619,
      "ile": 620,
      "reat": 621,
      "ces": 622,
      "Ġacc": 623,
      "Ġits": 624,
      "Ġhow": 625,
      "ife": 626,
      "Ġpart": 627,
      "ail": 628,
      "ia": 629,
      "ens": 630,
      "Ġno": 631,
      "ok": 632,
      "ree": 633,
      "ĠâĢ": 634,
      "ates": 635,
      "Ġover": 636,
      "ub": 637,
      "av": 638,
      "mer": 639,
      "ĠWe": 640,
      "ities": 641,
      "Ġpre": 642,
      "Ð³": 643,
      "Ġshow": 644,
      "ĠSt": 645,
      "Ġbeen": 646,
      "Ġsc": 647,
      "Ġqu": 648,
      "Ġeff": 649,
      "lic": 650,
      "ase": 651,
      "Ġwant": 652,
      "ĠThis": 653,
      "Ġneed": 654,
      "erson": 655,
      "ÐµÐ½": 656,
      "ased": 657,
      "ink": 658,
      "Ġjust": 659,
      "ry": 660,
      "Ġatt": 661,
      "Ġwor": 662,
      "irst": 663,
      "gment": 664,
      "Ġcould": 665,
      "Ġcomm": 666,
      "Ð¾Ð´": 667,
      "Ġwere": 668,
      "ĠÐº": 669,
      "Ġlife": 670,
      "ors": 671,
      "Ġany": 672,
      "Ġinto": 673,
      "ĠÐ´": 674,
      "nder": 675,
      "int": 676,
      "Ġdec": 677,
      "Ġmay": 678,
      "Ġ20": 679,
      "Ġgood": 680,
      "olog": 681,
      "Ġpos": 682,
      "amp": 683,
      "ang": 684,
      "Ġmod": 685,
      "Ð¾Ð¼": 686,
      "ish": 687,
      "Ġag": 688,
      "Ð¾Ð³": 689,
      "Ġoff": 690,
      "Ġph": 691,
      "Ġhad": 692,
      "ific": 693,
      "ory": 694,
      "Ġpr": 695,
      "ÑĨ": 696,
      "wn": 697,
      "ak": 698,
      "ite": 699,
      "ful": 700,
      "ond": 701,
      "ĠY": 702,
      "Ġshould": 703,
      "ph": 704,
      "Ġyear": 705,
      "Ġro": 706,
      "ÑĤÐµ": 707,
      "ject": 708,
      "ough": 709,
      "Ġthan": 710,
      "Ð°Ð»": 711,
      "Ð¾Ð»": 712,
      "ĠHe": 713,
      "Ð¾ÑĢ": 714,
      "ew": 715,
      "Ġlo": 716,
      "In": 717,
      "ound": 718,
      "Ġmany": 719,
      "Ġdiffere": 720,
      "Ġprov": 721,
      "ĠĠĠĠĠĠĠĠĠĠĠĠĠĠĠĠ": 722,
      "ob": 723,
      "ethod": 724,
      "Ġperson": 725,
      "Ġimport": 726,
      "ĠÐ¼": 727,
      "Ġsegment": 728,
      "Ġunder": 729,
      "Ġrec": 730,
      "ms": 731,
      "Ġsy": 732,
      "ric": 733,
      "lud": 734,
      "Ġuse": 735,
      "Ġhigh": 736,
      "ĠK": 737,
      "Ġcol": 738,
      "chn": 739,
      "ction": 740,
      "ving": 741,
      "Ġher": 742,
      "ari": 743,
      "Ñİ": 744,
      "Ġmethod": 745,
      "Ġcar": 746,
      "elf": 747,
      "ular": 748,
      "ual": 749,
      "ident": 750,
      "vers": 751,
      "Ġind": 752,
      "Ġcons": 753,
      "Ġsom": 754,
      "rough": 755,
      "ÑģÐº": 756,
      "Ġdes": 757,
      "Ġsuch": 758,
      "Ð¶": 759,
      "Ġway": 760,
      "Ð½Ñĭ": 761,
      "ons": 762,
      "ener": 763,
      "ĠV": 764,
      "Ġdat": 765,
      "Ġser": 766,
      "ks": 767,
      "Ġthink": 768,
      "ures": 769,
      "Ġfirst": 770,
      "Ġthese": 771,
      "Ġtw": 772,
      "fter": 773,
      "Ġevery": 774,
      "ord": 775,
      "ÐµÑĤ": 776,
      "Ġgra": 777,
      "Ġam": 778,
      "Ġmost": 779,
      "Ġpol": 780,
      "ages": 781,
      "Ġrel": 782,
      "Ġexper": 783,
      "round": 784,
      "ys": 785,
      "ÐµÐ½Ð¸": 786,
      "low": 787,
      "Ġinter": 788,
      "Ġpres": 789,
      "ian": 790,
      "ting": 791,
      "Ġinclud": 792,
      "ĠÐ½Ð°": 793,
      "Ġ-": 794,
      "Ġdifferent": 795,
      "ÑĪ": 796,
      "te": 797,
      "ĠĊĠĊ": 798,
      "Ġtechn": 799,
      "Ġdon": 800,
      "Ġra": 801,
      "we": 802,
      "Ð¾Ð¹": 803,
      "ib": 804,
      "Ġonly": 805,
      "rit": 806,
      "Ġappro": 807,
      "ating": 808,
      "ÑĢÐ¸": 809,
      "Ġrep": 810,
      "Ġimportant": 811,
      "ild": 812,
      "ved": 813,
      "ll": 814,
      "work": 815,
      "Ġem": 816,
      "Ġtake": 817,
      "ility": 818,
      "pport": 819,
      "ative": 820,
      "Ġthen": 821,
      "Ġinv": 822,
      "ath": 823,
      "cy": 824,
      "ef": 825,
      "ark": 826,
      "uc": 827,
      "Ġnum": 828,
      "Ġwhere": 829,
      "Ġplay": 830,
      "oth": 831,
      "ng": 832,
      "Ġsegmentation": 833,
      "stem": 834,
      "red": 835,
      "ange": 836,
      "ĠÐ±": 837,
      "Ġused": 838,
      "hen": 839,
      "Ġtwo": 840,
      "Ġ3": 841,
      "ract": 842,
      "Ġob": 843,
      "ood": 844,
      "Ġprop": 845,
      "ĠCh": 846,
      "Ġsee": 847,
      "dition": 848,
      "Ġbetter": 849,
      "Ġ201": 850,
      "Ġelect": 851,
      "les": 852,
      "Ġshe": 853,
      "ne": 854,
      "ics": 855,
      "ution": 856,
      "ater": 857,
      "Ġworld": 858,
      "Ġreg": 859,
      "Ġext": 860,
      "Ġthrough": 861,
      "uring": 862,
      "Ġimage": 863,
      "ily": 864,
      "pect": 865,
      "ĠÐ³": 866,
      "Ð½Ð¾": 867,
      "Ġown": 868,
      "Ð»Ð¸": 869,
      "ced": 870,
      "Ġeven": 871,
      "ccess": 872,
      "Ġlearning": 873,
      "cess": 874,
      "ĠUn": 875,
      "ments": 876,
      "ething": 877,
      "alth": 878,
      "âĢĻ": 879,
      "ĠÑĤ": 880,
      "Ġcare": 881,
      "ology": 882,
      "Ġset": 883,
      "Ġbeing": 884,
      "xt": 885,
      "Ġsaid": 886,
      "Ġresult": 887,
      "Ġhome": 888,
      "Ġstate": 889,
      "Ġsystem": 890,
      "oy": 891,
      "als": 892,
      "Ġsomething": 893,
      "ential": 894,
      "ever": 895,
      "Ġac": 896,
      "ational": 897,
      "Ġadv": 898,
      "Ġsm": 899,
      "ample": 900,
      "Ġke": 901,
      "Ġass": 902,
      "Ġsign": 903,
      "ient": 904,
      "Ġpa": 905,
      "Ð½Ð°": 906,
      "Ġmodel": 907,
      "Ð¾ÑĤ": 908,
      "ible": 909,
      "Ġi": 910,
      "Ġ'": 911,
      "Ġsuccess": 912,
      "ives": 913,
      "hed": 914,
      "Ð»Ð°": 915,
      "rib": 916,
      "Ð¾Ð³Ð¾": 917,
      "Ġlead": 918,
      "Ġwhile": 919,
      "Ġinf": 920,
      "ram": 921,
      "fore": 922,
      "ÐµÑĢ": 923,
      ").": 924,
      "imes": 925,
      "ict": 926,
      "ise": 927,
      "Ġwell": 928,
      "Ġrem": 929,
      "Ġdist": 930,
      "Ġafter": 931,
      "ĠÑĥ": 932,
      "Ġfam": 933,
      "its": 934,
      "Ġco": 935,
      "ert": 936,
      "row": 937,
      "Ġproble": 938,
      "ited": 939,
      "Ġcomple": 940,
      "Ð¾Ñģ": 941,
      "Ġben": 942,
      "old": 943,
      "Ġdet": 944,
      "Ġfind": 945,
      "ade": 946,
      "Ġvari": 947,
      "ĠÐ·": 948,
      "Ġcommun": 949,
      "Ġthings": 950,
      "Ġexample": 951,
      "velop": 952,
      "itive": 953,
      "ÑģÑĤÐ²": 954,
      "roup": 955,
      "ves": 956,
      "ween": 957,
      "ied": 958,
      "),": 959,
      "ience": 960,
      "uch": 961,
      "orn": 962,
      "ision": 963,
      "Ġconc": 964,
      "Ġeffect": 965,
      "Ġgoing": 966,
      "osed": 967,
      "Ġtrans": 968,
      "Ġcount": 969,
      "led": 970,
      "Ñī": 971,
      "Ġgener": 972,
      "Ġbetween": 973,
      "Ġday": 974,
      "Ġstudent": 975,
      "Ġide": 976,
      "ÑĨÐ¸": 977,
      "other": 978,
      "Ġmo": 979,
      "ward": 980,
      "iqu": 981,
      "arch": 982,
      "Ġpo": 983,
      "yp": 984,
      "Ġboth": 985,
      "Ġusing": 986,
      "ious": 987,
      "ĠÑ": 988,
      "Ġdata": 989,
      "ways": 990,
      "Ġmed": 991,
      "Ġlong": 992,
      "Ġbu": 993,
      "Ġdevelop": 994,
      "iss": 995,
      "ower": 996,
      "Ġable": 997,
      "ick": 998,
      "Ġactiv": 999,
      "Ġart": 1000,
      "Ġnumber": 1001,
      "ason": 1002,
      "Ġstr": 1003,
      "Ġallow": 1004,
      "Ġfin": 1005,
      ".\"": 1006,
      "Ġsoc": 1007,
      "ieve": 1008,
      "Ġbased": 1009,
      "Ġop": 1010,
      "Ġfeel": 1011,
      "Ġyears": 1012,
      "Ġgroup": 1013,
      "Ð»ÑĮ": 1014,
      "Ġsim": 1015,
      "Ġvery": 1016,
      "ÑĤÑĮ": 1017,
      "ublic": 1018,
      "Ġeach": 1019,
      "own": 1020,
      "Ġtry": 1021,
      "ues": 1022,
      "ten": 1023,
      "Ġhealth": 1024,
      "Ġstudy": 1025,
      "Ġthose": 1026,
      "Ġvot": 1027,
      "erm": 1028,
      "Ġed": 1029,
      "Ġsub": 1030,
      "etwork": 1031,
      "Ġexpl": 1032,
      "stand": 1033,
      "Ġspec": 1034,
      "ĠFor": 1035,
      "ined": 1036,
      "Ġpaper": 1037,
      "Ġbl": 1038,
      "line": 1039,
      "ural": 1040,
      "Ġinform": 1041,
      "Ġdid": 1042,
      "Ġfun": 1043,
      "Ġbel": 1044,
      "Ġsur": 1045,
      "Ġexp": 1046,
      "iving": 1047,
      "Ġapproach": 1048,
      "get": 1049,
      "Ġgreat": 1050,
      "Ġmuch": 1051,
      "Ġimpro": 1052,
      "Ġbenef": 1053,
      "meric": 1054,
      "urn": 1055,
      "Ð°Ðº": 1056,
      "Ġloc": 1057,
      "Ġback": 1058,
      "Ġdisc": 1059,
      "Ġinst": 1060,
      "ft": 1061,
      "aw": 1062,
      "ss": 1063,
      "Ġlar": 1064,
      "hip": 1065,
      "Ġent": 1066,
      "Ġperform": 1067,
      "Ġsec": 1068,
      "Ġincluding": 1069,
      "Ð°Ð½": 1070,
      "Th": 1071,
      "acher": 1072,
      "ĠÑĩ": 1073,
      "Ġstart": 1074,
      "Ġprodu": 1075,
      "ends": 1076,
      "ÐµÐ¼": 1077,
      "Ġcur": 1078,
      "Ġfri": 1079,
      "any": 1080,
      "Ġalways": 1081,
      "Ð¾Ð½": 1082,
      "ĠThey": 1083,
      "Ġ200": 1084,
      "Ġlot": 1085,
      "ĠIf": 1086,
      "Ġsame": 1087,
      "ĠWh": 1088,
      "Ġagain": 1089,
      "ier": 1090,
      "Ġbest": 1091,
      "ruct": 1092,
      "Ġhard": 1093,
      "Ġunderstand": 1094,
      "iew": 1095,
      "ĠAmeric": 1096,
      "Ġhum": 1097,
      "Ġhim": 1098,
      "Ġnetwork": 1099,
      "iel": 1100,
      "hes": 1101,
      "Ġfeat": 1102,
      "Ġpartic": 1103,
      "Ġsay": 1104,
      "Ġpot": 1105,
      "ts": 1106,
      "Ġchar": 1107,
      "ien": 1108,
      "ix": 1109,
      "Ġaut": 1110,
      "ÑĤÐ¸": 1111,
      "Ġmade": 1112,
      "ĠÐ¿ÑĢ": 1113,
      "ĠAl": 1114,
      "Ġbo": 1115,
      "ety": 1116,
      "day": 1117,
      "Ġcho": 1118,
      "Ġdr": 1119,
      "Ġclasses": 1120,
      "Ġduring": 1121,
      "Ġwhy": 1122,
      "ivid": 1123,
      "eng": 1124,
      "Ġmat": 1125,
      "Ġright": 1126,
      "Ġcall": 1127,
      "ically": 1128,
      "Ġdoes": 1129,
      "gan": 1130,
      "Ġsol": 1131,
      "Ġins": 1132,
      "Ġdem": 1133,
      "Ġreal": 1134,
      "Ġconf": 1135,
      "ized": 1136,
      "Ġprog": 1137,
      "Ġprovid": 1138,
      "Ġhand": 1139,
      "ĠÑĢÐ°": 1140,
      "Ġaround": 1141,
      "Ġopt": 1142,
      "ÑģÑı": 1143,
      "Ġnow": 1144,
      "Ġteacher": 1145,
      "Ġbefore": 1146,
      "ĠNew": 1147,
      "owever": 1148,
      "tern": 1149,
      "ases": 1150,
      "Ġform": 1151,
      "ince": 1152,
      "Ġhapp": 1153,
      "Ġmult": 1154,
      "Ġmight": 1155,
      "ollow": 1156,
      "uture": 1157,
      "ually": 1158,
      "ield": 1159,
      "Ġsk": 1160,
      "Ġpotential": 1161,
      "Ġ4": 1162,
      "Ġcomput": 1163,
      "Ġpositive": 1164,
      "Ġprocess": 1165,
      "Ġothers": 1166,
      "ren": 1167,
      "ization": 1168,
      "Ġ5": 1169,
      "Ġchange": 1170,
      "Ġdoing": 1171,
      "Ġdesign": 1172,
      "Ġcre": 1173,
      "ional": 1174,
      "ize": 1175,
      "ont": 1176,
      "lege": 1177,
      "gor": 1178,
      "Ġreally": 1179,
      "ĠYou": 1180,
      "ared": 1181,
      ",\"": 1182,
      "Ġincre": 1183,
      "Ġfuture": 1184,
      "Ġend": 1185,
      "arly": 1186,
      "ines": 1187,
      "Ġgu": 1188,
      "ness": 1189,
      "ices": 1190,
      "Ð´Ð°": 1191,
      "Ġsignific": 1192,
      "Ġresults": 1193,
      "Ġeas": 1194,
      "Ð»Ðµ": 1195,
      "Ġimages": 1196,
      "Ġinformation": 1197,
      "Ġfamily": 1198,
      "ÑĤÐ¾": 1199,
      "19": 1200,
      "Ġfail": 1201,
      "Ġval": 1202,
      "Ð¼Ð¸": 1203,
      "Ġ$": 1204,
      "self": 1205,
      "Ġresp": 1206,
      "ather": 1207,
      "ets": 1208,
      "lu": 1209,
      "ÑĤÐ°": 1210,
      "ÐºÐ°": 1211,
      "Ġrese": 1212,
      "''": 1213,
      "Ġref": 1214,
      "ivers": 1215,
      "ck": 1216,
      "ĠÐ¾Ð±": 1217,
      "ars": 1218,
      "ern": 1219,
      "cept": 1220,
      "Ġjob": 1221,
      "Ġav": 1222,
      "kes": 1223,
      "``": 1224,
      "Ġach": 1225,
      "ining": 1226,
      "Ġ[": 1227,
      "the": 1228,
      "Ġfollow": 1229,
      "onst": 1230,
      "ÑĢÑĥ": 1231,
      "Ġrequ": 1232,
      "ĠÐ½Ðµ": 1233,
      "Ġtyp": 1234,
      "ĠĠĠĠĠĠĠĠĠĠĠĠĠĠĠĠĠĠĠĠĠĠĠĠĠĠĠĠĠĠĠĠ": 1235,
      "Ġpop": 1236,
      "ĠAs": 1237,
      "Ġfact": 1238,
      "Ġwithout": 1239,
      "Ġsignificant": 1240,
      "rop": 1241,
      "Ġchall": 1242,
      "Ġanal": 1243,
      "read": 1244,
      "Ġhaving": 1245,
      "Ð¾Ð±": 1246,
      "Ġadd": 1247,
      "Ġstill": 1248,
      "lus": 1249,
      "Ġdep": 1250,
      "Ġproject": 1251,
      "thing": 1252,
      "gg": 1253,
      "vern": 1254,
      "way": 1255,
      "Ġthing": 1256,
      "Ġthough": 1257,
      "ination": 1258,
      "ividual": 1259,
      "Ġ``": 1260,
      "Ġsupport": 1261,
      "Ġpoint": 1262,
      "ty": 1263,
      "Ġmaking": 1264,
      "Ġgive": 1265,
      "ov": 1266,
      "Ġ18": 1267,
      "Ġtest": 1268,
      "Ġfound": 1269,
      "ody": 1270,
      "Ġlook": 1271,
      "Ġworking": 1272,
      "Ġnovel": 1273,
      "gy": 1274,
      "ash": 1275,
      "ality": 1276,
      "ered": 1277,
      "Ġdef": 1278,
      "Ġlarge": 1279,
      "Ġsomeone": 1280,
      "Ġdown": 1281,
      "Ġproblem": 1282,
      "Ġindividual": 1283,
      "gorith": 1284,
      "Ġtal": 1285,
      "ouse": 1286,
      "uss": 1287,
      "apt": 1288,
      "Ġthree": 1289,
      "##": 1290,
      "Ġtechnology": 1291,
      "tle": 1292,
      "rent": 1293,
      "'re": 1294,
      "Ġbr": 1295,
      "ÑģÑĤÐ¸": 1296,
      "Ġprovide": 1297,
      "ense": 1298,
      "Ġmem": 1299,
      "erest": 1300,
      "Ġpat": 1301,
      "Ġposs": 1302,
      "con": 1303,
      "Ġproposed": 1304,
      "Ġcareer": 1305,
      "ertain": 1306,
      "der": 1307,
      "Ġidea": 1308,
      "Ġcontin": 1309,
      "ĠÐ·Ð°": 1310,
      "cing": 1311,
      "ude": 1312,
      "Ġsmall": 1313,
      "Ġless": 1314,
      "ann": 1315,
      "Ġcell": 1316,
      "Ġpower": 1317,
      "Ð»Ñı": 1318,
      "ek": 1319,
      "Ġalgorith": 1320,
      "ins": 1321,
      "Ġgrow": 1322,
      "ocus": 1323,
      "Ġkeep": 1324,
      "ĠÑį": 1325,
      "ĠAnd": 1326,
      "oss": 1327,
      "ists": 1328,
      "Ġoften": 1329,
      "Ġnever": 1330,
      "Ġredu": 1331,
      "Ġeduc": 1332,
      "iven": 1333,
      "Ġsit": 1334,
      "ital": 1335,
      "Ġreason": 1336,
      "orts": 1337,
      "ention": 1338,
      "ĠHowever": 1339,
      "pportun": 1340,
      "Ð²Ð¸": 1341,
      "ĠÐ¿Ð¾": 1342,
      "eg": 1343,
      "ider": 1344,
      "ĠÐ°": 1345,
      "Ġfocus": 1346,
      "Ġmus": 1347,
      "ones": 1348,
      "Ġinterest": 1349,
      "Ġopportun": 1350,
      "ired": 1351,
      "Ġlim": 1352,
      "Ġ*": 1353,
      "und": 1354,
      "ead": 1355,
      "Ġbecome": 1356,
      "Ð´Ðµ": 1357,
      "less": 1358,
      "Ġonline": 1359,
      "ĠBut": 1360,
      "ÐµÐ½Ð¸Ñı": 1361,
      "20": 1362,
      "ours": 1363,
      "ism": 1364,
      "Ġdire": 1365,
      "ave": 1366,
      "Ġdi": 1367,
      "Ð²Ð°": 1368,
      "Ġsever": 1369,
      "Ġpass": 1370,
      "Ġcontro": 1371,
      "Ġhuman": 1372,
      "Ġtas": 1373,
      "land": 1374,
      "Ġiss": 1375,
      "ross": 1376,
      "Ð¾Ð²Ð°": 1377,
      "nce": 1378,
      "ock": 1379,
      "Ġinvest": 1380,
      "itude": 1381,
      "acter": 1382,
      "iron": 1383,
      "ĠÐ¾ÑĤ": 1384,
      "oney": 1385,
      "This": 1386,
      "Ġfriends": 1387,
      "Ġcommunity": 1388,
      "com": 1389,
      "Ġpublic": 1390,
      "ump": 1391,
      "sc": 1392,
      "ability": 1393,
      "ĠThere": 1394,
      "Ġimprove": 1395,
      "Ġpar": 1396,
      "ake": 1397,
      "ique": 1398,
      "ÑģÐ¸": 1399,
      "ven": 1400,
      "Ġtoo": 1401,
      "ale": 1402,
      "Ġfil": 1403,
      "Ġread": 1404,
      "Ġchild": 1405,
      "We": 1406,
      "Ġseveral": 1407,
      "Ġactivities": 1408,
      "Ġcome": 1409,
      "Ġresearch": 1410,
      "Ġknown": 1411,
      "of": 1412,
      "Ġteam": 1413,
      "Ġself": 1414,
      "olution": 1415,
      "Ġbus": 1416,
      "ify": 1417,
      "Ġpresent": 1418,
      "Ġeffic": 1419,
      "Ġmon": 1420,
      "Ġbeh": 1421,
      "Ġenv": 1422,
      "Ġpur": 1423,
      "ĠâĢĵ": 1424,
      "up": 1425,
      "Ġfield": 1426,
      "Ġsing": 1427,
      "imate": 1428,
      "ull": 1429,
      "Ġret": 1430,
      "arent": 1431,
      "Ġ)": 1432,
      "Ġexperience": 1433,
      "ised": 1434,
      "Ġbelieve": 1435,
      "ĠCol": 1436,
      "Ġgovern": 1437,
      "oral": 1438,
      "Ġobject": 1439,
      "nect": 1440,
      "Ġyoung": 1441,
      "Ġrele": 1442,
      "Ġbad": 1443,
      "urther": 1444,
      "resent": 1445,
      "ĠÑģÑĤ": 1446,
      "Ġsocial": 1447,
      "iversity": 1448,
      "ĠTr": 1449,
      "cial": 1450,
      "iness": 1451,
      "Ġfl": 1452,
      "ĠSe": 1453,
      "Ġmoney": 1454,
      "Ġprev": 1455,
      "io": 1456,
      "Ġlit": 1457,
      "ĠFr": 1458,
      "Ġlevel": 1459,
      "Ġtop": 1460,
      "Ġmethods": 1461,
      "Ġprof": 1462,
      "Ġcor": 1463,
      "Ġche": 1464,
      "Ð½ÑĭÑħ": 1465,
      "ditional": 1466,
      "Ġconst": 1467,
      "ted": 1468,
      "ĠAd": 1469,
      "lications": 1470,
      "ĠUnited": 1471,
      "ĠâĢľ": 1472,
      "az": 1473,
      "ĠAmerican": 1474,
      "Ġprom": 1475,
      "Ġagainst": 1476,
      "Ġstay": 1477,
      "jor": 1478,
      "Ġbre": 1479,
      "esp": 1480,
      "Ġest": 1481,
      "Ġfew": 1482,
      "ove": 1483,
      "ling": 1484,
      "ĠWhen": 1485,
      "ĠÐĴ": 1486,
      "Ġplace": 1487,
      "It": 1488,
      "raph": 1489,
      "onstr": 1490,
      "Ġident": 1491,
      "Ġimpact": 1492,
      "Ġgl": 1493,
      "air": 1494,
      "Ġ6": 1495,
      "Ð½Ð¾Ð³Ð¾": 1496,
      "Ġenviron": 1497,
      "Ġcomplex": 1498,
      "Ġmin": 1499,
      "Ġhist": 1500,
      "Ġhere": 1501,
      "ÐµÐ¹": 1502,
      "Ġchalleng": 1503,
      "osp": 1504,
      "Ġsum": 1505,
      "ple": 1506,
      "ĠAn": 1507,
      "Ġstre": 1508,
      "Ġsince": 1509,
      "ĠCom": 1510,
      "Ġequ": 1511,
      "ribut": 1512,
      "Ġcle": 1513,
      "ĠÐ»": 1514,
      "Ġperformance": 1515,
      "Ġanother": 1516,
      "Ġvis": 1517,
      "ills": 1518,
      "orth": 1519,
      "Ġdemonstr": 1520,
      "ĠÐ¿ÑĢÐ¸": 1521,
      "Ġaff": 1522,
      "lusion": 1523,
      "ÑĢÐµÐ´": 1524,
      "ĠShe": 1525,
      "ames": 1526,
      "iple": 1527,
      "ex": 1528,
      "ters": 1529,
      "Ġask": 1530,
      "Ġbuild": 1531,
      "Ġel": 1532,
      "Ġplan": 1533,
      "sel": 1534,
      "ature": 1535,
      "Ġput": 1536,
      "ĠÐ±Ñĭ": 1537,
      "ains": 1538,
      "ĠÐµ": 1539,
      "Ġstruct": 1540,
      "Ġpolit": 1541,
      "Ġattitude": 1542,
      "Ġbig": 1543,
      "Ġdue": 1544,
      "ior": 1545,
      "au": 1546,
      "be": 1547,
      "Ġdeep": 1548,
      "Ġvarious": 1549,
      "ÑĦ": 1550,
      "Ġeng": 1551,
      "Ġlast": 1552,
      "Ġmean": 1553,
      "ished": 1554,
      "Ġris": 1555,
      "Ð½Ð¾Ð¹": 1556,
      "Ġorder": 1557,
      "ner": 1558,
      "ĠAr": 1559,
      "Ġconsider": 1560,
      "atic": 1561,
      "ids": 1562,
      "Ġchang": 1563,
      "icial": 1564,
      "Ġlaw": 1565,
      "Ġextra": 1566,
      "Ġpay": 1567,
      "Ġcharacter": 1568,
      "Ġfour": 1569,
      "ression": 1570,
      "Ġcountry": 1571,
      "Ġcreat": 1572,
      "Ġcent": 1573,
      "Ġspe": 1574,
      "Ġfeatures": 1575,
      "ĠÐ¡": 1576,
      "Ġlet": 1577,
      "Ġserv": 1578,
      "Ġmet": 1579,
      "Ġavail": 1580,
      "Ġsecond": 1581,
      "Ġdirect": 1582,
      "rodu": 1583,
      "icult": 1584,
      "Ġold": 1585,
      "ĠSo": 1586,
      "ental": 1587,
      "Ð¾Ð¶": 1588,
      "Ġbro": 1589,
      "ending": 1590,
      "...": 1591,
      "Ġcars": 1592,
      "Ġproper": 1593,
      "Ġcalled": 1594,
      "Ġweek": 1595,
      "Ġtell": 1596,
      "Ġwithin": 1597,
      "Ġinvol": 1598,
      "Ġmajor": 1599,
      "oun": 1600,
      "Ġrun": 1601,
      "Ġearly": 1602,
      "ÐºÐ¸": 1603,
      "Ð¾Ðº": 1604,
      "iting": 1605,
      "arm": 1606,
      "Ġsaf": 1607,
      "Ġter": 1608,
      "oh": 1609,
      "ÑĩÐµ": 1610,
      "Ġcomb": 1611,
      "Ġlab": 1612,
      "ering": 1613,
      "ĠStates": 1614,
      "Ġenvironment": 1615,
      "Ġdifficult": 1616,
      "els": 1617,
      "ning": 1618,
      "ĠSp": 1619,
      "Ġprot": 1620,
      "Ġ10": 1621,
      "ĠYork": 1622,
      "ledge": 1623,
      "Ġfac": 1624,
      "Ġcurrent": 1625,
      "ral": 1626,
      "Âł": 1627,
      "Ġmedical": 1628,
      "Ġtaking": 1629,
      "wards": 1630,
      "Ġphys": 1631,
      "ĠÑģÐ¾": 1632,
      "Ġdecision": 1633,
      "Ġopen": 1634,
      "ĠâĢĶ": 1635,
      "Ġvide": 1636,
      "oci": 1637,
      "Ġrest": 1638,
      "Ġinflu": 1639,
      "Ġquest": 1640,
      "Ġconnect": 1641,
      "ÑĤÐµÐ»ÑĮ": 1642,
      "ysis": 1643,
      "ura": 1644,
      "Ð³Ð¾": 1645,
      "ĠÐŁ": 1646,
      "ĠOur": 1647,
      "ah": 1648,
      "Ġparent": 1649,
      "ived": 1650,
      "ights": 1651,
      "ulation": 1652,
      "Ġbra": 1653,
      "Ġnon": 1654,
      "Ġgame": 1655,
      "Ġpract": 1656,
      "Ġener": 1657,
      "Ġrepresent": 1658,
      "Ġalgorithm": 1659,
      "inc": 1660,
      "Ġsitu": 1661,
      "ÑĩÐ¸": 1662,
      "Ð¾Ð·": 1663,
      "Ġland": 1664,
      "itions": 1665,
      "Ġlocal": 1666,
      "Ġavailable": 1667,
      "Ġstrong": 1668,
      "'m": 1669,
      "view": 1670,
      "Ġgrad": 1671,
      "ources": 1672,
      "Ġenc": 1673,
      "Ð°Ð»ÑĮ": 1674,
      "conom": 1675,
      "bers": 1676,
      "ron": 1677,
      "Ġface": 1678,
      "hor": 1679,
      "put": 1680,
      "ants": 1681,
      "ances": 1682,
      "Ġ**": 1683,
      "Ġstand": 1684,
      "aking": 1685,
      "Ġcrit": 1686,
      "Ġreport": 1687,
      "Ġfunction": 1688,
      "Ð¡": 1689,
      "Ġcertain": 1690,
      "selves": 1691,
      "Ġcollege": 1692,
      "ator": 1693,
      "Ġvir": 1694,
      "Ġmark": 1695,
      "Ġair": 1696,
      "Ġ199": 1697,
      "Ġwrit": 1698,
      "ank": 1699,
      "ĠÐł": 1700,
      "Ġgeneral": 1701,
      "ĠBy": 1702,
      "Ġcr": 1703,
      "Ġturn": 1704,
      "Ġopin": 1705,
      "ĠSh": 1706,
      "Ð´Ð¸": 1707,
      "ĠWith": 1708,
      "Ðŀ": 1709,
      "Ð¾Ð»ÑĮ": 1710,
      "ĠThat": 1711,
      "Ð¸Ñħ": 1712,
      "Ġmeas": 1713,
      "Ġproblems": 1714,
      "Ġorgan": 1715,
      "ration": 1716,
      "man": 1717,
      "emic": 1718,
      "Ġcap": 1719,
      "Ð·Ð°": 1720,
      "oot": 1721,
      "Ġgot": 1722,
      "Ġknowledge": 1723,
      "ps": 1724,
      "cer": 1725,
      "Ġstates": 1726,
      "As": 1727,
      "alu": 1728,
      "Ġcase": 1729,
      "Ġcity": 1730,
      "Ġkind": 1731,
      "Ġenergy": 1732,
      "Ġann": 1733,
      "Ġcontrol": 1734,
      "su": 1735,
      "erv": 1736,
      "âĢĿ": 1737,
      "Ġmove": 1738,
      "Ġve": 1739,
      "Ġ7": 1740,
      "ploy": 1741,
      "inal": 1742,
      "ection": 1743,
      "Ġgovernment": 1744,
      "ĠÐ¶": 1745,
      "Ġfood": 1746,
      "Ġmusic": 1747,
      "ape": 1748,
      "ĠLe": 1749,
      "Ġdatas": 1750,
      "ĠRep": 1751,
      "Ġpossible": 1752,
      "Ġimm": 1753,
      "Ġmultiple": 1754,
      "Ġtimes": 1755,
      "ained": 1756,
      "Ġsuccessful": 1757,
      "ĠThese": 1758,
      "yn": 1759,
      "Ġaccess": 1760,
      "ĠSome": 1761,
      "Ġconv": 1762,
      "Ġimag": 1763,
      "ĠDe": 1764,
      "Ġspace": 1765,
      "ially": 1766,
      "isions": 1767,
      "oking": 1768,
      "Ġneg": 1769,
      "Ġrecent": 1770,
      "Ġ8": 1771,
      "Ġcost": 1772,
      "Ġcreate": 1773,
      "Ġbusiness": 1774,
      "Ġunt": 1775,
      "ples": 1776,
      "Ġrespons": 1777,
      "Ġlives": 1778,
      "ĠIs": 1779,
      "Ġprogram": 1780,
      "Ġcompany": 1781,
      "Ġkey": 1782,
      "000": 1783,
      "Ġ9": 1784,
      "Ġconclusion": 1785,
      "Ð½Ðµ": 1786,
      "ĠÑĢÐµ": 1787,
      "Ġbreak": 1788,
      "Ġoper": 1789,
      "Ġvote": 1790,
      "idence": 1791,
      "me": 1792,
      "ured": 1793,
      "Ġess": 1794,
      "Ġpresident": 1795,
      "Ġeconom": 1796,
      "ĠUniversity": 1797,
      "Ġgoals": 1798,
      "Ġmakes": 1799,
      "Ġdone": 1800,
      "Ġleg": 1801,
      "âĢĵ": 1802,
      "Ġdays": 1803,
      "ton": 1804,
      "icle": 1805,
      "Ð¾Ð´Ð°": 1806,
      "Ġeveryone": 1807,
      "ries": 1808,
      "Ġbas": 1809,
      "Ġmind": 1810,
      "Ġtrying": 1811,
      "Ġcult": 1812,
      "ÑģÑĤÐ°": 1813,
      "lement": 1814,
      "ÑĨÐ¸Ð¸": 1815,
      "bo": 1816,
      "Ġparticular": 1817,
      "ÑģÐ¿": 1818,
      "Ġage": 1819,
      "cent": 1820,
      "Ġmeans": 1821,
      "Ġanalysis": 1822,
      "here": 1823,
      "Ġsuper": 1824,
      "ready": 1825,
      "omen": 1826,
      "Ġwin": 1827,
      "Ġrece": 1828,
      "Ġmain": 1829,
      "Ġmot": 1830,
      "to": 1831,
      "Ġinteract": 1832,
      "ĠCl": 1833,
      "andid": 1834,
      "Ġrelations": 1835,
      "Ġsystems": 1836,
      "Ġachieve": 1837,
      "Ġcomplete": 1838,
      "Ġaccom": 1839,
      "ger": 1840,
      "Ġmust": 1841,
      "iver": 1842,
      "Ġhead": 1843,
      "Ġenough": 1844,
      "Ġwr": 1845,
      "etimes": 1846,
      "ope": 1847,
      "Ġalready": 1848,
      "Ġmom": 1849,
      "Ġparents": 1850,
      "lish": 1851,
      "Ġskills": 1852,
      "Ġunderstanding": 1853,
      "ograph": 1854,
      "Ġbenefits": 1855,
      "Ġsingle": 1856,
      "ÑģÐµ": 1857,
      "ency": 1858,
      "Ġways": 1859,
      "Ġyourself": 1860,
      "Ġteachers": 1861,
      "Ġhappen": 1862,
      "lection": 1863,
      "Ġuntil": 1864,
      "Ġgetting": 1865,
      "Ġwon": 1866,
      "ĠÐ¸Ð·": 1867,
      "Ð¾Ð¿": 1868,
      "Ġvideo": 1869,
      "--": 1870,
      "Ð¼Ð°": 1871,
      "Ġhours": 1872,
      "ively": 1873,
      "ording": 1874,
      "Ġ:": 1875,
      "Ġprovides": 1876,
      "tt": 1877,
      "Ġlight": 1878,
      "Ġrole": 1879,
      "Ġacross": 1880,
      "Ġpersonal": 1881,
      "Ġfailure": 1882,
      "ĠÐľ": 1883,
      "Ġcomputer": 1884,
      "Ð°Ð»Ð¸": 1885,
      "Ġgradu": 1886,
      "Ġpolic": 1887,
      "ogn": 1888,
      "uracy": 1889,
      "Ġaway": 1890,
      "ember": 1891,
      "\".": 1892,
      "Ġtoget": 1893,
      "Ġeducation": 1894,
      "Wh": 1895,
      "Ġsem": 1896,
      "Ġcases": 1897,
      "Ġtogether": 1898,
      "ÑĩÐ°": 1899,
      "ÐĴ": 1900,
      "ĠÐļ": 1901,
      "ĠTo": 1902,
      "Ġnext": 1903,
      "Ġlow": 1904,
      "over": 1905,
      "Ġbook": 1906,
      "Ġexam": 1907,
      "ged": 1908,
      "Ġpath": 1909,
      "asons": 1910,
      "Ġpropose": 1911,
      "ax": 1912,
      "hing": 1913,
      "Ġhig": 1914,
      "Ġlittle": 1915,
      "joy": 1916,
      "Ġintern": 1917,
      "aster": 1918,
      "ication": 1919,
      "Ġamount": 1920,
      "ĠTrump": 1921,
      "ĠÂ": 1922,
      "Ġlive": 1923,
      "Ġprofess": 1924,
      "ÐĲ": 1925,
      "ĠInd": 1926,
      "ĠGener": 1927,
      "ĠÐ¿ÑĢÐ¾": 1928,
      "Ġaccuracy": 1929,
      "ĠÐ²Ñĭ": 1930,
      "ds": 1931,
      "Ġcour": 1932,
      "side": 1933,
      "ĠCount": 1934,
      "ĠÑĦ": 1935,
      "Ġsure": 1936,
      "pr": 1937,
      "port": 1938,
      "Ġcause": 1939,
      "ĠOn": 1940,
      "Ġarg": 1941,
      "bs": 1942,
      "Ġpopular": 1943,
      "Ġline": 1944,
      "Ġtraining": 1945,
      "atch": 1946,
      "room": 1947,
      "outh": 1948,
      "Ġdeb": 1949,
      "Ġdeterm": 1950,
      "ients": 1951,
      "Ġdecisions": 1952,
      "Ġdom": 1953,
      "ource": 1954,
      "Ġlikely": 1955,
      "Ġexperien": 1956,
      "aces": 1957,
      "Ġexist": 1958,
      "Ġpred": 1959,
      "Ġadvant": 1960,
      "Ġquant": 1961,
      "ivity": 1962,
      "Ġamong": 1963,
      "Ġchildren": 1964,
      "Ġbody": 1965,
      "Ġproduct": 1966,
      "Ġagree": 1967,
      "ories": 1968,
      "ĠRe": 1969,
      "angu": 1970,
      "Ġdiscuss": 1971,
      "Ġenjoy": 1972,
      "ball": 1973,
      "Ġview": 1974,
      "ats": 1975,
      "Ġcandid": 1976,
      "Ġmodels": 1977,
      "Ġauthor": 1978,
      "Ġpast": 1979,
      "Ġstep": 1980,
      "ĊĊ": 1981,
      "ĠPro": 1982,
      "Ġ198": 1983,
      "Ġdevelopment": 1984,
      "Ġsummer": 1985,
      "reen": 1986,
      "Ġlater": 1987,
      "Ġtre": 1988,
      "Ġloss": 1989,
      "Ġdesc": 1990,
      "Ġwater": 1991,
      "br": 1992,
      "acc": 1993,
      "asing": 1994,
      "Ġdra": 1995,
      "iques": 1996,
      "Ġopportunity": 1997,
      "ĠStud": 1998,
      "Ġcaus": 1999,
      "Ġallows": 2000,
      "Ġtalk": 2001,
      "Â»": 2002,
      "Ġarea": 2003,
      "lo": 2004,
      "'ve": 2005,
      "Ġrelationship": 2006,
      "aining": 2007,
      "Ġocc": 2008,
      "Ġgen": 2009,
      "Ġgiven": 2010,
      "Ġtext": 2011,
      "Ġfree": 2012,
      "oura": 2013,
      "ĠIm": 2014,
      "Ġens": 2015,
      "Ġdev": 2016,
      "Ġanything": 2017,
      "Ġprob": 2018,
      "Ġmar": 2019,
      "oring": 2020,
      "Ġschools": 2021,
      "ik": 2022,
      "Ġtrained": 2023,
      "Ġhelps": 2024,
      "Ġstress": 2025,
      "Ġdeath": 2026,
      "ĠSc": 2027,
      "gin": 2028,
      "por": 2029,
      "ury": 2030,
      "Ġadvice": 2031,
      "Ġevalu": 2032,
      "ĠÑĤÐµ": 2033,
      "Ġname": 2034,
      "Ġever": 2035,
      "Ġjo": 2036,
      "ream": 2037,
      "Ġcomes": 2038,
      "ĠEng": 2039,
      "ges": 2040,
      "ane": 2041,
      "Ġphones": 2042,
      "Ġexplore": 2043,
      "Ġexperim": 2044,
      "Ġcommon": 2045,
      "ising": 2046,
      "Ġfollowing": 2047,
      "Ġspecific": 2048,
      "Ġcapt": 2049,
      "Ġdri": 2050,
      "ibility": 2051,
      "ified": 2052,
      "ĠCon": 2053,
      "Ġseen": 2054,
      "Ġaffect": 2055,
      "Ġseem": 2056,
      "ina": 2057,
      "Ġfram": 2058,
      "Ġtreat": 2059,
      "ctor": 2060,
      "Ð°Ð¼": 2061,
      "Ġphone": 2062,
      "Ġachie": 2063,
      "verage": 2064,
      "ware": 2065,
      "Ġtechniques": 2066,
      "ote": 2067,
      "ney": 2068,
      "Ġfull": 2069,
      "Ġkids": 2070,
      ":**": 2071,
      "ilar": 2072,
      "resident": 2073,
      "Ð½Ð¸Ñı": 2074,
      "izing": 2075,
      "Ġchoose": 2076,
      "Ġfurther": 2077,
      "ditionally": 2078,
      "Ġdel": 2079,
      "ffic": 2080,
      "ended": 2081,
      "Ġtype": 2082,
      "Ġlist": 2083,
      "ably": 2084,
      "orld": 2085,
      "ilities": 2086,
      "ĠCounty": 2087,
      "aterial": 2088,
      "Ġnat": 2089,
      "Ġsl": 2090,
      "Ġphot": 2091,
      "ĠCollege": 2092,
      "Ġlove": 2093,
      "Ġexpect": 2094,
      "Ġmonth": 2095,
      "Ġaccompl": 2096,
      "par": 2097,
      "Ġemploy": 2098,
      "istic": 2099,
      "inally": 2100,
      "Ġpolitical": 2101,
      "Ġtask": 2102,
      "Ġhistory": 2103,
      "ute": 2104,
      "Ġmatter": 2105,
      "Ġpost": 2106,
      "Ġmiss": 2107,
      "Ġtool": 2108,
      "ological": 2109,
      "illion": 2110,
      "arth": 2111,
      "Ġbecame": 2112,
      "Ġ197": 2113,
      "Ġdriving": 2114,
      "Ġstrate": 2115,
      "ret": 2116,
      "Ġcamp": 2117,
      "Ġtraditional": 2118,
      "Ġarch": 2119,
      "Ġindividuals": 2120,
      "Ġparticip": 2121,
      "Ġoptim": 2122,
      "Ġstory": 2123,
      "ggest": 2124,
      "Ġant": 2125,
      "Ġissues": 2126,
      "Ġdesigned": 2127,
      "Ġleft": 2128,
      "Ġapplications": 2129,
      "Ġinvestig": 2130,
      "Ġorig": 2131,
      "Ġtowards": 2132,
      "Ġattention": 2133,
      "Ġsense": 2134,
      "Ġlangu": 2135,
      "more": 2136,
      "Ġseries": 2137,
      "Ġthemselves": 2138,
      "10": 2139,
      "Ġfilm": 2140,
      "Ġbi": 2141,
      "Ġthought": 2142,
      "ĠBe": 2143,
      "Ġmil": 2144,
      "Ġfar": 2145,
      "Ġwal": 2146,
      "eople": 2147,
      "ÑīÐµ": 2148,
      "Ġey": 2149,
      "ÐµÐ½Ð¸Ðµ": 2150,
      "St": 2151,
      "Ġeverything": 2152,
      "ug": 2153,
      "Ġnegative": 2154,
      "Ġ0": 2155,
      "Ð¶Ðµ": 2156,
      "ĠÑĩÑĤÐ¾": 2157,
      "ÑģÐºÐ¾Ð¹": 2158,
      "ĠÐĿ": 2159,
      "Ġsuggest": 2160,
      "fort": 2161,
      "Ġcontribut": 2162,
      "Ġreasons": 2163,
      "ext": 2164,
      "ken": 2165,
      "ocr": 2166,
      "Ġstop": 2167,
      "Ġbehav": 2168,
      "antic": 2169,
      "ÐµÑĢÐµ": 2170,
      "Ġfund": 2171,
      "Ġcommit": 2172,
      "Ġmaterial": 2173,
      "ĠEx": 2174,
      "for": 2175,
      "Ð¸Ð¼": 2176,
      "Ġnecess": 2177,
      "Ġdidn": 2178,
      "aut": 2179,
      "Ġbound": 2180,
      "Ġrob": 2181,
      "Ġactually": 2182,
      "ĠOne": 2183,
      "ĠÐĲ": 2184,
      "Ġconcern": 2185,
      "ĠHis": 2186,
      "Ġtrue": 2187,
      "Ġshort": 2188,
      "Ġareas": 2189,
      "Ġactivity": 2190,
      "ences": 2191,
      "Ġability": 2192,
      "ospital": 2193,
      "Ġdemonstrate": 2194,
      "Ġfre": 2195,
      "ird": 2196,
      "ÐµÐº": 2197,
      "Ġelse": 2198,
      "ohn": 2199,
      "Ġrespect": 2200,
      "Ð²Ð¾": 2201,
      "Ġrecogn": 2202,
      "ĠQ": 2203,
      "Ġelection": 2204,
      "Ġsimilar": 2205,
      "Ġeasy": 2206,
      "Ġoffer": 2207,
      "Ġservice": 2208,
      "Ġsoci": 2209,
      "ĠPresident": 2210,
      "Ġreduce": 2211,
      "Ġassoci": 2212,
      "Ġpress": 2213,
      "Ġefficient": 2214,
      "Ġevent": 2215,
      "ÐµÐ»": 2216,
      "ĠÐ¿Ð¾Ð´": 2217,
      "Ġchallenges": 2218,
      "ĠZ": 2219,
      "sw": 2220,
      "ĠElect": 2221,
      "Ġborn": 2222,
      "Ġonce": 2223,
      "'ll": 2224,
      "NN": 2225,
      "sp": 2226,
      "Ġgraph": 2227,
      "Ġbenefit": 2228,
      "Ġunique": 2229,
      "ensive": 2230,
      "Ġer": 2231,
      "ĠAfter": 2232,
      "Ġtem": 2233,
      "ification": 2234,
      "Ġresources": 2235,
      "Ġsituation": 2236,
      "sh": 2237,
      "ĠWhile": 2238,
      "ÑģÑĤÑĮ": 2239,
      "uff": 2240,
      "Ġgoal": 2241,
      "Ð³Ð°": 2242,
      "Ġmeet": 2243,
      "rict": 2244,
      "Ġhouse": 2245,
      "Ġrange": 2246,
      "aving": 2247,
      "Ġfriend": 2248,
      "Ġ196": 2249,
      "aring": 2250,
      "Ġgames": 2251,
      "Ġsw": 2252,
      "Ġlat": 2253,
      "ately": 2254,
      "Ġsupp": 2255,
      "based": 2256,
      "ried": 2257,
      "Ġcond": 2258,
      "\",": 2259,
      "Ġaddress": 2260,
      "Ġhigher": 2261,
      "Ð¸Ð»": 2262,
      "ode": 2263,
      "Ġrisk": 2264,
      "Ġsports": 2265,
      "Ġalong": 2266,
      "ĠRepublic": 2267,
      "ĠÂ«": 2268,
      "arl": 2269,
      "Ġwide": 2270,
      "Ġfore": 2271,
      "Ġclose": 2272,
      "uck": 2273,
      "Ġmedia": 2274,
      "enus": 2275,
      "ÐŁ": 2276,
      "ee": 2277,
      "iod": 2278,
      "itect": 2279,
      "ĠĠĠĠĠĠĠĠĠĠĠĠĠĠĠĠĠĠĠĠĠĠĠĠĠĠĠĠĠĠĠĠĠĠĠĠĠĠĠĠĠĠĠĠĠĠĠĠĠĠĠĠĠĠĠĠĠĠĠĠĠĠĠĠ": 2280,
      "Ġside": 2281,
      "ĠÑĢÐ°Ð·": 2282,
      "Ġadm": 2283,
      "ĠPh": 2284,
      "Ġinclude": 2285,
      "Ġneeds": 2286,
      "Ġdise": 2287,
      "Ġpers": 2288,
      "Ġspecial": 2289,
      "ĠTe": 2290,
      "ties": 2291,
      "Ġideas": 2292,
      "lished": 2293,
      "Ġcompared": 2294,
      "Ð¸Ð¹": 2295,
      "Ð°ÑĢ": 2296,
      "Ġinstead": 2297,
      "Ġtax": 2298,
      "Ġintrodu": 2299,
      "ĠÑĤÐ°Ðº": 2300,
      "chan": 2301,
      "Ġaccomplish": 2302,
      "Ġstructure": 2303,
      "ĠUS": 2304,
      "rap": 2305,
      "aches": 2306,
      "Ġtasks": 2307,
      "Ġjour": 2308,
      "idd": 2309,
      "Ð¸ÑĤ": 2310,
      "Ġsometimes": 2311,
      "de": 2312,
      "Ġdeg": 2313,
      "Ġobs": 2314,
      "Ġtold": 2315,
      "Ġtoday": 2316,
      "sequ": 2317,
      "ored": 2318,
      "Ġbring": 2319,
      "Ġmaint": 2320,
      "Ġnatural": 2321,
      "Ġrather": 2322,
      "hem": 2323,
      "Ġvirus": 2324,
      "Ġaccount": 2325,
      "Ġtook": 2326,
      ".,": 2327,
      "epend": 2328,
      "Ġstarted": 2329,
      "ĠCan": 2330,
      "Ġstudies": 2331,
      "ĠAt": 2332,
      "Ð²Ðµ": 2333,
      "Ġlooking": 2334,
      "Ðĺ": 2335,
      "Ġaim": 2336,
      "lying": 2337,
      "Ġpredict": 2338,
      "An": 2339,
      "Ġalone": 2340,
      "Ġmarket": 2341,
      "Ġemot": 2342,
      "acks": 2343,
      "Ġdetail": 2344,
      "ĠGo": 2345,
      "bum": 2346,
      "Ġmag": 2347,
      "Ġleast": 2348,
      "Ġbrain": 2349,
      "Ġessential": 2350,
      "ĠRes": 2351,
      "ÐĿ": 2352,
      "Ð´Ñĥ": 2353,
      "Ġreleased": 2354,
      "Ġopportunities": 2355,
      "Ġwhether": 2356,
      "Ġperiod": 2357,
      "ene": 2358,
      "arget": 2359,
      "Ġacad": 2360,
      "ĠÐŀ": 2361,
      "Ġglob": 2362,
      "Ġneural": 2363,
      "Ġpain": 2364,
      "ĠÑı": 2365,
      "Ġphysical": 2366,
      "iency": 2367,
      "Ġchoice": 2368,
      "ÑĢÐ¾Ð²": 2369,
      "Ð¸Ð½": 2370,
      "Ġclear": 2371,
      "Ġterms": 2372,
      "Ġcompet": 2373,
      "oman": 2374,
      "Ġinit": 2375,
      "ecially": 2376,
      "Ð¾ÑģÑģÐ¸": 2377,
      ".''": 2378,
      "ĠMy": 2379,
      "app": 2380,
      "Ġrequire": 2381,
      "though": 2382,
      "mber": 2383,
      "Ġshows": 2384,
      "idents": 2385,
      "Ġidentify": 2386,
      "Ġsays": 2387,
      "face": 2388,
      "by": 2389,
      "Ġexc": 2390,
      "Ġeffects": 2391,
      "itle": 2392,
      "imately": 2393,
      "ÑģÑĤÐ²Ð°": 2394,
      "For": 2395,
      "ym": 2396,
      "Ġ15": 2397,
      "Ġvariety": 2398,
      "Ġappear": 2399,
      "Ġwrong": 2400,
      "Ġgroups": 2401,
      "ĠCO": 2402,
      "oid": 2403,
      "ĠPr": 2404,
      "Ġbegan": 2405,
      "ÑģÑĮ": 2406,
      "ither": 2407,
      "Ġlay": 2408,
      "Ġdescrib": 2409,
      "!!": 2410,
      "Ġpict": 2411,
      "Ġseason": 2412,
      "Ġincrease": 2413,
      "Ġaddition": 2414,
      "Ġ12": 2415,
      "Ġarticle": 2416,
      "There": 2417,
      "Ġrecord": 2418,
      "Ġarchitect": 2419,
      "ĠAlso": 2420,
      "Ġcontinue": 2421,
      "If": 2422,
      "Ġesp": 2423,
      "ĠDem": 2424,
      "let": 2425,
      "fer": 2426,
      "ently": 2427,
      "acy": 2428,
      "most": 2429,
      "aim": 2430,
      "ides": 2431,
      "Ġ&": 2432,
      "Ġtheory": 2433,
      "ush": 2434,
      "Ġsubject": 2435,
      "ĠĠĠ": 2436,
      "ĠJohn": 2437,
      "âĢĶ": 2438,
      "Ġcorre": 2439,
      "Ġopinion": 2440,
      "__": 2441,
      "Ġoutside": 2442,
      "Ġindust": 2443,
      "Ġleading": 2444,
      "Ġcoll": 2445,
      "ption": 2446,
      "ÑģÐºÐ¾Ð³Ð¾": 2447,
      "aign": 2448,
      "fect": 2449,
      "Ġquality": 2450,
      "arr": 2451,
      "verall": 2452,
      "amet": 2453,
      "Ġanim": 2454,
      "erous": 2455,
      "Ġaccur": 2456,
      "inking": 2457,
      "Ġprojects": 2458,
      "med": 2459,
      "Ġquestion": 2460,
      "ĠAll": 2461,
      "ĠÐ¿ÑĢÐµÐ´": 2462,
      "erence": 2463,
      "ister": 2464,
      "ĠÐ¿Ð¾Ð»": 2465,
      "ĠGeneric": 2466,
      "ĠOr": 2467,
      "Ġpercent": 2468,
      "ror": 2469,
      "Ġworks": 2470,
      "akes": 2471,
      "Ġprevious": 2472,
      "Ġbuy": 2473,
      "Ġcame": 2474,
      "Ġmechan": 2475,
      "ators": 2476,
      "ules": 2477,
      "vised": 2478,
      "18": 2479,
      "Ġquick": 2480,
      "ards": 2481,
      "une": 2482,
      "ework": 2483,
      "artment": 2484,
      "Ġfeature": 2485,
      "Ġ--": 2486,
      "Ġvol": 2487,
      "ief": 2488,
      "Ġcountries": 2489,
      "utions": 2490,
      "urop": 2491,
      "Ġnorm": 2492,
      "Ġanaly": 2493,
      "Ġalbum": 2494,
      "Ġhomework": 2495,
      "ĠAdditionally": 2496,
      "oing": 2497,
      "ued": 2498,
      "cur": 2499,
      "Ġexpress": 2500,
      "Ġquantum": 2501,
      "Ġdoesn": 2502,
      "Ġconcept": 2503,
      "ĠPl": 2504,
      "use": 2505,
      "Ġprim": 2506,
      "Ġcal": 2507,
      "Ð¼ÐµÐ½": 2508,
      "bra": 2509,
      "Ġet": 2510,
      "yle": 2511,
      "Ġtarget": 2512,
      "ided": 2513,
      "Ġespecially": 2514,
      "agn": 2515,
      "Ġeffective": 2516,
      "Ġgr": 2517,
      "Ġlanguage": 2518,
      "ID": 2519,
      "ium": 2520,
      "ival": 2521,
      "forms": 2522,
      "Ġwanted": 2523,
      "ĠEm": 2524,
      "cle": 2525,
      "Ġmen": 2526,
      "Ġmist": 2527,
      "Ġ194": 2528,
      "ober": 2529,
      "duct": 2530,
      "When": 2531,
      "Ġproviding": 2532,
      "Ġsound": 2533,
      "Ġansw": 2534,
      "rom": 2535,
      "Ġclub": 2536,
      "oint": 2537,
      "ule": 2538,
      "Ġ17": 2539,
      "Ġplayed": 2540,
      "Ð¼Ðµ": 2541,
      "Ġreturn": 2542,
      "ÑĢÐ¾": 2543,
      "Ġimportance": 2544,
      "etic": 2545,
      "atory": 2546,
      "Ġpri": 2547,
      "Ġattend": 2548,
      "Ġchanges": 2549,
      "ley": 2550,
      "Ġemer": 2551,
      "Ġencoura": 2552,
      "Ðļ": 2553,
      "ĠComm": 2554,
      "Ġpolicy": 2555,
      "ÑħÐ¾Ð´": 2556,
      "Ġchance": 2557,
      "augh": 2558,
      "Ġlabel": 2559,
      "Ġwent": 2560,
      "izations": 2561,
      "ze": 2562,
      "Name": 2563,
      "alf": 2564,
      "ĠMay": 2565,
      "Ġreach": 2566,
      "lev": 2567,
      "light": 2568,
      "ĠâĢĻ": 2569,
      "urope": 2570,
      "Ġframework": 2571,
      "Ġdistance": 2572,
      "Ġappl": 2573,
      "Ġnetworks": 2574,
      "Ġvers": 2575,
      "ancial": 2576,
      "Ġfamil": 2577,
      "ÐºÐ¾Ð²": 2578,
      "ires": 2579,
      "ÑģÑĤÐ¾": 2580,
      "ĠÐ¼Ðµ": 2581,
      "Ġimplement": 2582,
      "Ġstru": 2583,
      "Ð½ÑĭÐµ": 2584,
      "Ġhold": 2585,
      "Ġissue": 2586,
      "ÑĥÑĢ": 2587,
      "arc": 2588,
      "ĠÐºÐ¾ÑĤ": 2589,
      "Ġdont": 2590,
      "Ġassign": 2591,
      "ĠSen": 2592,
      "Ġpatients": 2593,
      "Ġcampaign": 2594,
      "Ġaverage": 2595,
      "Ġrate": 2596,
      "ĠÑįÑĤ": 2597,
      "Ð¸Ðµ": 2598,
      "Ġhope": 2599,
      "Ġones": 2600,
      "ler": 2601,
      "Ġplaying": 2602,
      "iol": 2603,
      "na": 2604,
      "Ġrelated": 2605,
      "ĠTimes": 2606,
      "11": 2607,
      "Ġmembers": 2608,
      "Ġsym": 2609,
      "Ġge": 2610,
      "Ġ/": 2611,
      "ĠCal": 2612,
      "omet": 2613,
      "Ġexperiences": 2614,
      "ĠElectoral": 2615,
      "ĠCity": 2616,
      "Ġtechnique": 2617,
      "AS": 2618,
      "ĠÐ´Ð¾": 2619,
      "ung": 2620,
      "Ġwhole": 2621,
      "Ġtaken": 2622,
      "ians": 2623,
      "Ġregular": 2624,
      "ÑģÑĤÐ²ÐµÐ½": 2625,
      "Ġut": 2626,
      "Ġdeal": 2627,
      "Ġfig": 2628,
      "Ġtot": 2629,
      "inist": 2630,
      "verse": 2631,
      "Ġstat": 2632,
      "urb": 2633,
      "isc": 2634,
      "ipp": 2635,
      "Ð»Ñĥ": 2636,
      "Ġprinc": 2637,
      "Ġteach": 2638,
      "Ġeasier": 2639,
      "uly": 2640,
      "Ġwomen": 2641,
      "Ġconditions": 2642,
      "Ġsimple": 2643,
      "yond": 2644,
      "ĠWorld": 2645,
      "gest": 2646,
      "ots": 2647,
      "Ġdriver": 2648,
      "Ð»Ð¾": 2649,
      "ison": 2650,
      "ground": 2651,
      "Ġful": 2652,
      "osing": 2653,
      "new": 2654,
      "Ġprotect": 2655,
      "Ġmanage": 2656,
      "urity": 2657,
      "Ġusage": 2658,
      "Ġsens": 2659,
      "Ġheart": 2660,
      "ission": 2661,
      "Ġmotiv": 2662,
      "ÑĥÑİ": 2663,
      "Ġnight": 2664,
      "ĠEurope": 2665,
      "Ġautom": 2666,
      "itary": 2667,
      "Ġassociated": 2668,
      "Ġhappy": 2669,
      "Ġlimit": 2670,
      "enge": 2671,
      "ÐºÐ¾": 2672,
      "50": 2673,
      "Ġdatasets": 2674,
      "Ðł": 2675,
      "ĠÐºÐ°Ðº": 2676,
      "Ġofficial": 2677,
      "ald": 2678,
      "Ð¸Ð·": 2679,
      "stract": 2680,
      "Ġstatement": 2681,
      "Ġfactors": 2682,
      "Ġshare": 2683,
      "ĠVenus": 2684,
      "anc": 2685,
      "ĠNational": 2686,
      "Ġlevels": 2687,
      "time": 2688,
      "Ġnecessary": 2689,
      "Ġclassroom": 2690,
      "ĠDemocr": 2691,
      "ĠBrit": 2692,
      "Ġsociety": 2693,
      "ĠStudents": 2694,
      "Ġcourse": 2695,
      "Ġbeneficial": 2696,
      "Ġyet": 2697,
      "ĠPeople": 2698,
      "ĠWhat": 2699,
      "Ġscient": 2700,
      "Ġtypes": 2701,
      "unch": 2702,
      "Ġvacc": 2703,
      "Ġnothing": 2704,
      "ring": 2705,
      "Ġefficiency": 2706,
      "ging": 2707,
      "Ġneeded": 2708,
      "You": 2709,
      "not": 2710,
      "ox": 2711,
      "body": 2712,
      "Ġfall": 2713,
      "imens": 2714,
      "Ġbecom": 2715,
      "Ð¸Ñģ": 2716,
      "ĠÐ´Ðµ": 2717,
      "Ð½Ñı": 2718,
      "Ġmulti": 2719,
      "Ġincreasing": 2720,
      "Ġmach": 2721,
      "ribution": 2722,
      "Ð½ÑĭÐ¹": 2723,
      "ÑĤÐ¾ÑĢ": 2724,
      "Ġobt": 2725,
      "Ġestab": 2726,
      "ĠState": 2727,
      "Ġobjects": 2728,
      "Ġformer": 2729,
      "Ġglobal": 2730,
      "Ġsource": 2731,
      "Ġacademic": 2732,
      "Ġroad": 2733,
      "Ġbehind": 2734,
      "Ġtravel": 2735,
      "Ġcou": 2736,
      "Ġ16": 2737,
      "ift": 2738,
      "Ġproperties": 2739,
      "ĠSchool": 2740,
      "Ġfinancial": 2741,
      "Ġhowever": 2742,
      "Ġconsist": 2743,
      "Ġensure": 2744,
      "ĠWar": 2745,
      "Ġlonger": 2746,
      "ÐµÑĤÑģÑı": 2747,
      "ctions": 2748,
      "Ġdream": 2749,
      "Ġpoints": 2750,
      "Ġeffort": 2751,
      "icro": 2752,
      "Ġsafe": 2753,
      "Ġactive": 2754,
      "ecause": 2755,
      "ÑĪÐµ": 2756,
      "Ġhospital": 2757,
      "Ġopp": 2758,
      "hus": 2759,
      "ĠHouse": 2760,
      "ĠBl": 2761,
      "Ð¿Ð°": 2762,
      "Ġfindings": 2763,
      "Ġallowing": 2764,
      "Ġground": 2765,
      "pro": 2766,
      "amed": 2767,
      "umb": 2768,
      "Ġfoot": 2769,
      "enn": 2770,
      "Ġpriv": 2771,
      "af": 2772,
      "ibr": 2773,
      "anced": 2774,
      "ray": 2775,
      "ĠNo": 2776,
      "ĠÐĺ": 2777,
      "ricular": 2778,
      "Ġinn": 2779,
      "illed": 2780,
      "Ġliving": 2781,
      "Ġrad": 2782,
      "Ġpurp": 2783,
      "ilt": 2784,
      "Ġtransport": 2785,
      "Ġfive": 2786,
      "Ġadapt": 2787,
      "come": 2788,
      "Ġwa": 2789,
      "Ġmeasure": 2790,
      "Ġflow": 2791,
      "Ġsle": 2792,
      "aps": 2793,
      "Ġregion": 2794,
      "Ġeither": 2795,
      "Ġdang": 2796,
      "urs": 2797,
      "Ġ=": 2798,
      "Ġterm": 2799,
      "Ġcru": 2800,
      "econd": 2801,
      "rast": 2802,
      "Ġcir": 2803,
      "One": 2804,
      "Ġsat": 2805,
      "Ġtakes": 2806,
      "Ġindepend": 2807,
      "sy": 2808,
      "Ġhon": 2809,
      "ched": 2810,
      "aries": 2811,
      "ĠÐ´Ð»Ñı": 2812,
      "Ġbegin": 2813,
      "hib": 2814,
      "Ġbehavior": 2815,
      "Ġstrugg": 2816,
      "ĠÑħ": 2817,
      "Ġreli": 2818,
      "....": 2819,
      "idered": 2820,
      "Ġsemantic": 2821,
      "my": 2822,
      "ceed": 2823,
      "avor": 2824,
      "bit": 2825,
      "Ġinteg": 2826,
      "lex": 2827,
      "Ġinfluence": 2828,
      "aging": 2829,
      "ables": 2830,
      "Ġlack": 2831,
      "ynam": 2832,
      "husi": 2833,
      "Ġaction": 2834,
      "oph": 2835,
      "rams": 2836,
      "Ġserved": 2837,
      "icate": 2838,
      "Ġnear": 2839,
      "Ġill": 2840,
      "ales": 2841,
      "irl": 2842,
      "Ð½Ð¾ÑģÑĤÐ¸": 2843,
      "Ġoption": 2844,
      "nal": 2845,
      "Ġz": 2846,
      "Ġincreased": 2847,
      "org": 2848,
      "ument": 2849,
      "Ġgives": 2850,
      "Ġlower": 2851,
      "Ġpie": 2852,
      "Ġmoment": 2853,
      "ults": 2854,
      "Ġusually": 2855,
      "Ġbuilding": 2856,
      "Ġpowerful": 2857,
      "Ġpub": 2858,
      "asm": 2859,
      "ament": 2860,
      "Ġfinish": 2861,
      "Ġconsidered": 2862,
      "Ġvalu": 2863,
      "olutional": 2864,
      "Ġrobust": 2865,
      "ĠX": 2866,
      "NA": 2867,
      "Ġregard": 2868,
      "vant": 2869,
      "ĠGerm": 2870,
      "Ġlate": 2871,
      "izes": 2872,
      "ĠFrom": 2873,
      "Ġpopulation": 2874,
      "Ġcreated": 2875,
      "elt": 2876,
      "Ġbal": 2877,
      "ĠÐ¿Ð¾Ñģ": 2878,
      "Ġgrowth": 2879,
      "hel": 2880,
      "Ġreflect": 2881,
      "To": 2882,
      "Ġstuff": 2883,
      "Ġuses": 2884,
      "abor": 2885,
      "Ġeconomic": 2886,
      "Ã©": 2887,
      "cl": 2888,
      "On": 2889,
      "Ġalgorithms": 2890,
      "Ð²Ð»": 2891,
      "Ġvalue": 2892,
      "Ġcy": 2893,
      "Ġcompan": 2894,
      "12": 2895,
      "Ġinput": 2896,
      "Ġalmost": 2897,
      "Ġcontext": 2898,
      "Ġremember": 2899,
      "Ġroom": 2900,
      "ĊĠ": 2901,
      "Ġgain": 2902,
      "Ġparamet": 2903,
      "Ġolder": 2904,
      "ama": 2905,
      "Ġpoll": 2906,
      "ĠPol": 2907,
      "ĠÐ²Ð¾": 2908,
      "ĠRuss": 2909,
      "curricular": 2910,
      "Ġmodern": 2911,
      "Ġenthusi": 2912,
      "Ġstreng": 2913,
      "Ġmeaning": 2914,
      "Ġevents": 2915,
      "Ð¢": 2916,
      "rist": 2917,
      "ĠÐĶ": 2918,
      "Ġrequired": 2919,
      "ery": 2920,
      "Ġpractice": 2921,
      "Ġinvolved": 2922,
      "Ġprior": 2923,
      "Ġperspect": 2924,
      "ÑĢÑı": 2925,
      "Ġposition": 2926,
      "Ġmess": 2927,
      "eder": 2928,
      "Ġoverall": 2929,
      "ĠÐºÐ¾ÑĤÐ¾ÑĢ": 2930,
      "Ġreported": 2931,
      "Ġmillion": 2932,
      "ĠSy": 2933,
      "Ġperfect": 2934,
      "Ġwar": 2935,
      "ĠAm": 2936,
      "leg": 2937,
      "Ġvaluable": 2938,
      "Ġimpress": 2939,
      "Ġbeyond": 2940,
      "Ġhom": 2941,
      "Ġcard": 2942,
      "ming": 2943,
      "Ġguid": 2944,
      "ĠÐłÐ¾ÑģÑģÐ¸": 2945,
      "ĠÐºÐ¾Ð¼": 2946,
      "ÑĭÑħ": 2947,
      "Ġshape": 2948,
      "urthermore": 2949,
      "urch": 2950,
      "Ġparticularly": 2951,
      "ÐµÐ½ÑĤ": 2952,
      "ĠAmerica": 2953,
      "ott": 2954,
      "hers": 2955,
      "lation": 2956,
      "ĠÐ¸Ð½": 2957,
      "Ġprofessional": 2958,
      "Ġteen": 2959,
      "Ġprevent": 2960,
      "Ġwords": 2961,
      "att": 2962,
      "Ġcollect": 2963,
      "hood": 2964,
      "reme": 2965,
      "atives": 2966,
      "Ġprep": 2967,
      "Ġviol": 2968,
      "ĠÐ³Ð¾Ð´Ð°": 2969,
      "reg": 2970,
      "Ġband": 2971,
      "ĠAf": 2972,
      "wh": 2973,
      "Ġbit": 2974,
      "ĠPar": 2975,
      "ĠÐ²ÑģÐµ": 2976,
      "Ġadvantages": 2977,
      "ĠHer": 2978,
      "Ġreview": 2979,
      "Ġclin": 2980,
      "Ġce": 2981,
      "ĠEnglish": 2982,
      "Ġvisit": 2983,
      "Ġ30": 2984,
      "Ġparty": 2985,
      "raft": 2986,
      "Ġdataset": 2987,
      "Ġstrateg": 2988,
      "Ġfeeling": 2989,
      "Ġpattern": 2990,
      "Ġcomfort": 2991,
      "Ġdraw": 2992,
      "But": 2993,
      "Ġsong": 2994,
      "Ġsolution": 2995,
      "aily": 2996,
      "Ð¶Ð´": 2997,
      "Ġscience": 2998,
      "Net": 2999,
      "Ġtreatment": 3000,
      "Ġvoters": 3001,
      "ĠInst": 3002,
      "Ġla": 3003,
      "Ġrelationships": 3004,
      "rew": 3005,
      "ÑĥÐ´": 3006,
      "onse": 3007,
      "Ġsafety": 3008,
      "Ġcommunication": 3009,
      "Ġnews": 3010,
      "Ġvotes": 3011,
      "Ġdetect": 3012,
      "Ð½ÑĭÐ¼": 3013,
      "Ġhalf": 3014,
      "Ġreceived": 3015,
      "Ġgrades": 3016,
      "Ġchallenge": 3017,
      "Ġsoft": 3018,
      "ask": 3019,
      "Ġnational": 3020,
      "Ġprogress": 3021,
      "Ġvict": 3022,
      "Ġexisting": 3023,
      "Ġminim": 3024,
      "Ġapplied": 3025,
      "Ġabs": 3026,
      "Ġwalk": 3027,
      "Ġcoun": 3028,
      "Ġmember": 3029,
      "Ġgiving": 3030,
      "Ġlimited": 3031,
      "Ġspend": 3032,
      "He": 3033,
      "aged": 3034,
      "nces": 3035,
      "Ð¸Ð¸": 3036,
      "Ġfight": 3037,
      "Ġthinking": 3038,
      "Ġimplications": 3039,
      "ai": 3040,
      "ĠNot": 3041,
      "Ġdrive": 3042,
      "avig": 3043,
      "Ġdisease": 3044,
      "born": 3045,
      "Ġmaybe": 3046,
      "Ġlatest": 3047,
      "ĠÐ»Ð¸": 3048,
      "eal": 3049,
      "Ġprobably": 3050,
      "ĠBro": 3051,
      "Ġdynam": 3052,
      "30": 3053,
      "Ġstra": 3054,
      "Ġprec": 3055,
      "Ġpolice": 3056,
      "VID": 3057,
      "Ġoptions": 3058,
      "ndom": 3059,
      "Ð±Ð¾ÑĤ": 3060,
      "Ġevidence": 3061,
      "Ġdegree": 3062,
      "zz": 3063,
      "Ġshown": 3064,
      "Ġcrucial": 3065,
      "Ġfast": 3066,
      "Ġtown": 3067,
      "Ġ2016": 3068,
      "Ġcells": 3069,
      "Ġeyes": 3070,
      "Ġcompon": 3071,
      "Ñĳ": 3072,
      "Ġ202": 3073,
      "ĠDep": 3074,
      "ĠÐ¤": 3075,
      "Ġgreater": 3076,
      "Ġcompanies": 3077,
      "Ġquestions": 3078,
      "like": 3079,
      "Ġgas": 3080,
      "ows": 3081,
      "Ġ14": 3082,
      "Ġtrust": 3083,
      "Ð°Ð»Ð°": 3084,
      "ĠRepublican": 3085,
      "ÐµÐ²": 3086,
      "Ġclaim": 3087,
      "ustom": 3088,
      "ague": 3089,
      "Ġoffers": 3090,
      "Ġmonths": 3091,
      "16": 3092,
      "hens": 3093,
      "where": 3094,
      "ores": 3095,
      "Ġsent": 3096,
      "Ġbroad": 3097,
      "ruction": 3098,
      "15": 3099,
      "First": 3100,
      "Ġindustry": 3101,
      "oses": 3102,
      "Ġengine": 3103,
      "Ġsequ": 3104,
      "ĠCent": 3105,
      "aves": 3106,
      "ÑĥÑĤ": 3107,
      "Ġunc": 3108,
      "ply": 3109,
      "Ġwatch": 3110,
      "Ġrepl": 3111,
      "ĠSouth": 3112,
      "Ġexamples": 3113,
      "Ġconduct": 3114,
      "elling": 3115,
      "ĠMany": 3116,
      "ĠÐ³Ð¾Ð´": 3117,
      "ĠGe": 3118,
      "iforn": 3119,
      "Ġsignificantly": 3120,
      "Ġaccurate": 3121,
      "ÐµÐ·": 3122,
      "ulations": 3123,
      "iveness": 3124,
      "Ġcritical": 3125,
      "Ġcut": 3126,
      "rim": 3127,
      "ership": 3128,
      "Ġsetting": 3129,
      "Ġrandom": 3130,
      "Ġbeaut": 3131,
      "###": 3132,
      "set": 3133,
      "ashion": 3134,
      "ĠÐĵ": 3135,
      "Ġhelping": 3136,
      "Ġfinal": 3137,
      "Ġhy": 3138,
      "Ġcandidate": 3139,
      "Ġregions": 3140,
      "Ġutil": 3141,
      "Ġled": 3142,
      "Ġsleep": 3143,
      "hest": 3144,
      "Ðľ": 3145,
      "ĠCOVID": 3146,
      "Ġdest": 3147,
      "Al": 3148,
      "Ġfather": 3149,
      "ĠFirst": 3150,
      "rug": 3151,
      "Ġextracurricular": 3152,
      "Ġsurface": 3153,
      "Ġep": 3154,
      "Ġmilitary": 3155,
      "Ġport": 3156,
      "Ð½Ð¸Ðµ": 3157,
      "Ġconsequ": 3158,
      "Ġentire": 3159,
      "200": 3160,
      "Ġ100": 3161,
      "ÑİÑĤ": 3162,
      "ĠAust": 3163,
      "Ġdeveloped": 3164,
      "care": 3165,
      "ĠÐĳ": 3166,
      "ĠCar": 3167,
      "Ġextract": 3168,
      "son": 3169,
      "Ġreve": 3170,
      "Ġvision": 3171,
      "ĠCanad": 3172,
      "know": 3173,
      "Ġcred": 3174,
      "ĠMed": 3175,
      "Ġveh": 3176,
      "Ġdetection": 3177,
      "Ġcirc": 3178,
      "Ġ195": 3179,
      "Ġapproaches": 3180,
      "Ġlocated": 3181,
      "Ġplanet": 3182,
      "Ġsaying": 3183,
      "Ġtherefore": 3184,
      "ifornia": 3185,
      "Ġitself": 3186,
      "Ġinsp": 3187,
      "ĠÐ¢": 3188,
      "ĠFe": 3189,
      "ĠDo": 3190,
      "Ġprograms": 3191,
      "Ġchallenging": 3192,
      "xim": 3193,
      "Ġasked": 3194,
      "Ġtrend": 3195,
      "Ġtotal": 3196,
      "Ġsave": 3197,
      "17": 3198,
      "ÑĢÐ°Ð·": 3199,
      "Ġfamilies": 3200,
      "Ġetc": 3201,
      "head": 3202,
      "Ġconvolutional": 3203,
      "ĠâĢĿ": 3204,
      "Ġsize": 3205,
      "Ġworth": 3206,
      "ĠMr": 3207,
      "ÑĢÐ°Ð½": 3208,
      "ĠBritish": 3209,
      "Ġsaw": 3210,
      "Ġsix": 3211,
      "Ġdig": 3212,
      "Ġblack": 3213,
      "Ġvalues": 3214,
      "Ġpix": 3215,
      "Ġthroughout": 3216,
      "ĠNorth": 3217,
      "Ġestim": 3218,
      "ighb": 3219,
      "inated": 3220,
      "istics": 3221,
      "Ġelectoral": 3222,
      "Ġimpression": 3223,
      "Ġquickly": 3224,
      "Ġeasily": 3225,
      "resh": 3226,
      "ÑģÑģ": 3227,
      "Ġcontact": 3228,
      "super": 3229,
      "Ġrace": 3230,
      "Ðķ": 3231,
      "Ġopinions": 3232,
      "Ġcreating": 3233,
      "iet": 3234,
      "ĠSu": 3235,
      "ĠEarth": 3236,
      "Ġspread": 3237,
      "vent": 3238,
      "ĠÑĢ": 3239,
      "What": 3240,
      "Ġworked": 3241,
      "ook": 3242,
      "Ġpick": 3243,
      "Ġpressure": 3244,
      "Ġoriginal": 3245,
      "esc": 3246,
      "Ġtransform": 3247,
      "Ġimproved": 3248,
      "Ġvo": 3249,
      "iate": 3250,
      "gmentation": 3251,
      "Ġresponse": 3252,
      "Ġdam": 3253,
      "Ġanyone": 3254,
      "So": 3255,
      "Ġservices": 3256,
      "Ġforce": 3257,
      "Ġwebs": 3258,
      "Ġgraduate": 3259,
      "ole": 3260,
      "Ġinnov": 3261,
      "play": 3262,
      "uge": 3263,
      "Ġhumans": 3264,
      "Ġnature": 3265,
      "Ġhistor": 3266,
      "inary": 3267,
      "Ġlearned": 3268,
      "ĠÐ¿ÑĢÐµ": 3269,
      "ager": 3270,
      "14": 3271,
      "ands": 3272,
      "ĠCalifornia": 3273,
      "Ġhealthy": 3274,
      "ccording": 3275,
      "Ġhighly": 3276,
      "ĠFl": 3277,
      "Ġsecurity": 3278,
      "//": 3279,
      "iddle": 3280,
      "Ġinsights": 3281,
      "Ġmyself": 3282,
      "Ġculture": 3283,
      "Ġball": 3284,
      "fact": 3285,
      "ises": 3286,
      "Ġmass": 3287,
      "Ġred": 3288,
      "Ġavoid": 3289,
      "Ġnormal": 3290,
      "Ġfully": 3291,
      "ana": 3292,
      "orpor": 3293,
      "mark": 3294,
      "Ġplat": 3295,
      "Ġmother": 3296,
      "Ġsimply": 3297,
      "Ġspeak": 3298,
      "Ġult": 3299,
      "anu": 3300,
      "ĠMore": 3301,
      "Ġaccording": 3302,
      "Ġresponsible": 3303,
      "Ġmagn": 3304,
      "ches": 3305,
      "Ġselect": 3306,
      "ctober": 3307,
      "rad": 3308,
      "vert": 3309,
      "ography": 3310,
      "lam": 3311,
      "Ġadditional": 3312,
      "Ġarchitecture": 3313,
      "icles": 3314,
      "Ġincludes": 3315,
      "ĠNe": 3316,
      "ĠOb": 3317,
      "Ġcoming": 3318,
      "iring": 3319,
      "Ġeducational": 3320,
      "Ġ;": 3321,
      "ony": 3322,
      "ĠPart": 3323,
      "Ġdepend": 3324,
      "Ġconstant": 3325,
      "Ġinstance": 3326,
      "Ġenh": 3327,
      "ĠÑģÐ¿": 3328,
      "amer": 3329,
      "Ġplayer": 3330,
      "Ġadvantage": 3331,
      "Ġslow": 3332,
      "Ġflu": 3333,
      "Ġmachine": 3334,
      "ÑĥÐ±": 3335,
      "ĠÑģÐ²Ð¾": 3336,
      "Ġgrowing": 3337,
      "Ġwind": 3338,
      "Ġforward": 3339,
      "empt": 3340,
      "Ġgrade": 3341,
      "Ġcustom": 3342,
      "Ġefforts": 3343,
      "Ġmathem": 3344,
      "Ġleave": 3345,
      "Ġadminist": 3346,
      "Ġfu": 3347,
      "Ġmaps": 3348,
      "Ġwants": 3349,
      "Ġexpected": 3350,
      "Ġtri": 3351,
      "anning": 3352,
      "ĠDr": 3353,
      "Ġpresents": 3354,
      "Ġcollection": 3355,
      "ĠMin": 3356,
      "Ġwriting": 3357,
      "However": 3358,
      "Ġneighb": 3359,
      "Ġpret": 3360,
      "ĠThen": 3361,
      "rehens": 3362,
      "uth": 3363,
      "Ġbuilt": 3364,
      "oll": 3365,
      "ĠMar": 3366,
      "Ġspecies": 3367,
      "Ġoutper": 3368,
      "Ġvisual": 3369,
      "Ġallowed": 3370,
      "arning": 3371,
      "Ġannot": 3372,
      "Ġstrength": 3373,
      "omm": 3374,
      "Ġwhite": 3375,
      "Ġplaces": 3376,
      "Ġyounger": 3377,
      "Ġfavor": 3378,
      "Ġlost": 3379,
      "osition": 3380,
      "Ġund": 3381,
      "apan": 3382,
      "ĠÐ¾Ñģ": 3383,
      "Ġprote": 3384,
      "ÐµÐ´": 3385,
      "Ġlif": 3386,
      "Ġsurround": 3387,
      "eks": 3388,
      "ĠApp": 3389,
      "Ġcandidates": 3390,
      "ma": 3391,
      "ÐĶ": 3392,
      "Ð¾Ð½Ð°": 3393,
      "astic": 3394,
      "Ġcolor": 3395,
      "Ġspeed": 3396,
      "ÑĩÐµÑģÐº": 3397,
      "Ġ\\": 3398,
      "rest": 3399,
      "Ġsepar": 3400,
      "agers": 3401,
      "Ġtalking": 3402,
      "Ġgirl": 3403,
      "Ġoccur": 3404,
      "Ġcit": 3405,
      "Ġremains": 3406,
      "Ġjobs": 3407,
      "Ġheld": 3408,
      "Ġparts": 3409,
      "ederal": 3410,
      "tering": 3411,
      "ÐºÑĥ": 3412,
      "iation": 3413,
      "Ġserious": 3414,
      "Ġlog": 3415,
      "aced": 3416,
      "Ġremind": 3417,
      "ĠÐºÐ¾Ð½": 3418,
      "Ġanswer": 3419,
      "ÑĭÐ¹": 3420,
      "ume": 3421,
      "Ġthird": 3422,
      "attle": 3423,
      "Ġsearch": 3424,
      "oor": 3425,
      "ĠMe": 3426,
      "Ġ13": 3427,
      "Ġdecre": 3428,
      "ington": 3429,
      "ipal": 3430,
      "Ġfront": 3431,
      "Ġdiagn": 3432,
      "erve": 3433,
      "Ġrights": 3434,
      "Ġchart": 3435,
      "ww": 3436,
      "ĠÐºÐ°": 3437,
      "Ġhighlight": 3438,
      "Ġupon": 3439,
      "Ġprimary": 3440,
      "Ġparticipate": 3441,
      "By": 3442,
      "used": 3443,
      "Ð½Ð¾Ð¼": 3444,
      "?''": 3445,
      "IS": 3446,
      "ÐµÐ½ÑĮ": 3447,
      "Ġtrou": 3448,
      "Ġclus": 3449,
      "Ġcontent": 3450,
      "Ġap": 3451,
      "osis": 3452,
      "Ġdecide": 3453,
      "ivil": 3454,
      "ĠÐ¼Ñĥ": 3455,
      "ata": 3456,
      "ÑĭÐµ": 3457,
      "Ġargue": 3458,
      "Ġblood": 3459,
      "ĠDon": 3460,
      "Ġaccept": 3461,
      "off": 3462,
      "Ġmental": 3463,
      "ĠÐ¾Ð½": 3464,
      "Ġuseful": 3465,
      "iber": 3466,
      "Ġcontinues": 3467,
      "Ġdomain": 3468,
      "supervised": 3469,
      "aff": 3470,
      "ER": 3471,
      "dom": 3472,
      "Ġupd": 3473,
      "Ġlandsc": 3474,
      "Ġeffectiveness": 3475,
      "ĠGu": 3476,
      "Ġbase": 3477,
      "andemic": 3478,
      "13": 3479,
      "Ġanimals": 3480,
      "Ġabove": 3481,
      "Ġdied": 3482,
      "Ð³Ð¸": 3483,
      "ĠOctober": 3484,
      "Ġnumbers": 3485,
      "âĢ¦": 3486,
      "Ġcannot": 3487,
      "back": 3488,
      "Ġaud": 3489,
      "Ġmistakes": 3490,
      "Ġsuc": 3491,
      "Ġremain": 3492,
      "'d": 3493,
      "Ġwritten": 3494,
      "ades": 3495,
      "Ġrepresentation": 3496,
      "ĠAb": 3497,
      "ĠNow": 3498,
      "Ġgets": 3499,
      "Ch": 3500,
      "Ġwoman": 3501,
      "Ġrates": 3502,
      "Ġword": 3503,
      "Title": 3504,
      "Ġhit": 3505,
      "Ġstudying": 3506,
      "wise": 3507,
      "Ġaspect": 3508,
      "Ġclinical": 3509,
      "usion": 3510,
      "Ġded": 3511,
      "Ġhost": 3512,
      "Ġdrug": 3513,
      "ĠÑįÑĤÐ¾": 3514,
      "asc": 3515,
      "Ġsolutions": 3516,
      "ĠÑĨ": 3517,
      "Ġtemper": 3518,
      "Ġcurrently": 3519,
      "rate": 3520,
      "Ġcombination": 3521,
      "irus": 3522,
      "ĠÐ¼Ð°": 3523,
      "Ġreact": 3524,
      "Ġdoc": 3525,
      "Ġtit": 3526,
      "Ġcaused": 3527,
      "Ġpublished": 3528,
      "Ġ25": 3529,
      "mit": 3530,
      "Ġdaily": 3531,
      "Ġcentury": 3532,
      "Ġdistract": 3533,
      "ĠEd": 3534,
      "fully": 3535,
      "Ġinfect": 3536,
      "ously": 3537,
      "Ġbelie": 3538,
      "Ġresidents": 3539,
      "Ġple": 3540,
      "Ġnamed": 3541,
      "Ġweeks": 3542,
      "Ġgoes": 3543,
      "AC": 3544,
      "Ġdecided": 3545,
      "ĠJapan": 3546,
      "ĠOf": 3547,
      "ĠMus": 3548,
      "ams": 3549,
      "het": 3550,
      "Ġjud": 3551,
      "Ġcele": 3552,
      "].": 3553,
      "Ġfrequ": 3554,
      "ender": 3555,
      "Ġnation": 3556,
      "ĠMost": 3557,
      "Ġfix": 3558,
      "Ġinj": 3559,
      "Ġstandard": 3560,
      "Ġfields": 3561,
      "Ġmathemat": 3562,
      "erc": 3563,
      "odes": 3564,
      "Ġheav": 3565,
      "Ġdifference": 3566,
      "ourses": 3567,
      "Ġisn": 3568,
      "ĠÑģÐµ": 3569,
      "Ġhealthcare": 3570,
      "ying": 3571,
      "Ð¾Ðµ": 3572,
      "Ġapplic": 3573,
      "Ġstrategies": 3574,
      "Ġfashion": 3575,
      "Ġarr": 3576,
      "ĠChrist": 3577,
      "Ġinternational": 3578,
      "ĠÐ³Ð¾ÑĢ": 3579,
      "Ġson": 3580,
      "Ġmix": 3581,
      "ĠTra": 3582,
      "oms": 3583,
      "Ġ193": 3584,
      "ĠChina": 3585,
      "Ġsam": 3586,
      "ĠHere": 3587,
      "ĠName": 3588,
      "ĠHigh": 3589,
      "Ġ2013": 3590,
      "ÐºÑĤ": 3591,
      "Ġpurpose": 3592,
      "ĠRec": 3593,
      "rote": 3594,
      "Another": 3595,
      "Ġsex": 3596,
      "lt": 3597,
      "Ġsil": 3598,
      "enc": 3599,
      "Ġclean": 3600,
      "Ġfair": 3601,
      "ĠAss": 3602,
      "erved": 3603,
      "Ġproduction": 3604,
      "inct": 3605,
      "anuary": 3606,
      "ĠDepartment": 3607,
      "Ġexact": 3608,
      "Ġcross": 3609,
      "ĠÐ¸Ð»Ð¸": 3610,
      "phas": 3611,
      "ĠII": 3612,
      "urt": 3613,
      "Ġdistribution": 3614,
      "Ġ2015": 3615,
      "Some": 3616,
      "Ġele": 3617,
      "Ġconsequences": 3618,
      "ensity": 3619,
      "ÑĥÐ¿": 3620,
      "Ġcollabor": 3621,
      "Ġstyle": 3622,
      "rec": 3623,
      "ÐµÐ´Ðµ": 3624,
      "Ġprice": 3625,
      "Ġâ": 3626,
      "Ġmicro": 3627,
      "ening": 3628,
      "Ġfit": 3629,
      "Ġcourses": 3630,
      "ĠÐµÐ³Ð¾": 3631,
      "oe": 3632,
      "rehensive": 3633,
      "bed": 3634,
      "Ġaltern": 3635,
      "ÑģÐºÐ°": 3636,
      "Ġtopic": 3637,
      "ĠAfric": 3638,
      "Ð¾Ð²Ð°Ð½Ð¸Ñı": 3639,
      "Ġtransportation": 3640,
      "Ġ11": 3641,
      "Ġachieving": 3642,
      "Ġstage": 3643,
      "ĠMc": 3644,
      "Ġattempt": 3645,
      "ÑĢÐµÐ¼": 3646,
      "Ġ2014": 3647,
      "Ġstories": 3648,
      "ĠHow": 3649,
      "Ġtrain": 3650,
      "comes": 3651,
      "year": 3652,
      "ese": 3653,
      "Ġinside": 3654,
      "ino": 3655,
      "Ġsal": 3656,
      "Ġdetermine": 3657,
      "Ð¸Ð²": 3658,
      "Ġpicture": 3659,
      "Ġcitiz": 3660,
      "Ġrev": 3661,
      "Ġtrack": 3662,
      "Ġsche": 3663,
      "Ġrisks": 3664,
      "Ġweak": 3665,
      "Ġparameters": 3666,
      "ucle": 3667,
      "Our": 3668,
      "Ġstar": 3669,
      "ached": 3670,
      "istance": 3671,
      "ĠBecause": 3672,
      "Ġattack": 3673,
      "Ġcancer": 3674,
      "ĠFurthermore": 3675,
      "Ġsucceed": 3676,
      "Ġpandemic": 3677,
      "Ġresearc": 3678,
      "Ġ?": 3679,
      "itor": 3680,
      "Ġbar": 3681,
      "ibly": 3682,
      "oon": 3683,
      "Ġwouldn": 3684,
      "Ġengage": 3685,
      "Ġinfluen": 3686,
      "Ġimpressions": 3687,
      "ÑĥÐ´Ð°": 3688,
      "Ġscen": 3689,
      "den": 3690,
      "://": 3691,
      "mar": 3692,
      "Ġsubst": 3693,
      "rel": 3694,
      "Ġconsum": 3695,
      "Ġemphas": 3696,
      "ĠMan": 3697,
      "Ġsqu": 3698,
      "Ġder": 3699,
      "Ġdesp": 3700,
      "ĠCont": 3701,
      "Ð·Ð¸": 3702,
      "ÐµÐ½Ð¸Ð¸": 3703,
      "Ġmajority": 3704,
      "Ġcheck": 3705,
      "Ġproducts": 3706,
      "Ġreveal": 3707,
      "ĠMarch": 3708,
      "Ġhelpful": 3709,
      "Ġliter": 3710,
      "Ġjournal": 3711,
      "Ġlegal": 3712,
      "ĠEn": 3713,
      "levision": 3714,
      "Ġfaster": 3715,
      "ĠIntern": 3716,
      "inton": 3717,
      "Ġeveryday": 3718,
      "ae": 3719,
      "ĠÐ¿ÑĢÐ°": 3720,
      "Ġcommunities": 3721,
      "Ġconcerns": 3722,
      "Ġ2012": 3723,
      "ÐµÐµ": 3724,
      "ĠÐ²Ð¾Ð·": 3725,
      "Ġfelt": 3726,
      "Ġhands": 3727,
      "AR": 3728,
      "omb": 3729,
      "ength": 3730,
      "ĠJust": 3731,
      "Ð»ÐµÐ¹": 3732,
      "Ġvia": 3733,
      "Ð²ÐµÑĢ": 3734,
      "Ġspect": 3735,
      "ĠTw": 3736,
      "Ġ2017": 3737,
      "Ġinterests": 3738,
      "Ġgreen": 3739,
      "utes": 3740,
      "ĠWest": 3741,
      "Ġfire": 3742,
      "Ġconvers": 3743,
      "Ġdou": 3744,
      "Ġspat": 3745,
      "ĠEven": 3746,
      "ites": 3747,
      "**:": 3748,
      "Ġchem": 3749,
      "oke": 3750,
      "Ġenthusiasm": 3751,
      "Ġthreat": 3752,
      "Ġproduce": 3753,
      "ulate": 3754,
      "Ġrunning": 3755,
      "Ġfootball": 3756,
      "Ġunf": 3757,
      "Ġsoon": 3758,
      "Ġsurv": 3759,
      "Ġmov": 3760,
      "Ġprocessing": 3761,
      "Ð»ÐµÐ½": 3762,
      "Ġdram": 3763,
      "Ġactions": 3764,
      "Ð°Ð½Ð¾Ð²": 3765,
      "Ġste": 3766,
      "Ġexplain": 3767,
      "Ġdirectly": 3768,
      "Ġprovided": 3769,
      "Ð¾Ð³ÑĢÐ°": 3770,
      "Ð¸ÑĤÐµ": 3771,
      "Ġindic": 3772,
      "Ġmanagement": 3773,
      "arily": 3774,
      "Ġbooks": 3775,
      "cell": 3776,
      "Ð½Ð¾Ðµ": 3777,
      "sem": 3778,
      "ĠLike": 3779,
      "Ġoutperforms": 3780,
      "ĠEl": 3781,
      "Overall": 3782,
      "Ġsun": 3783,
      "ips": 3784,
      "Ð½Ð°Ñı": 3785,
      "Ġcomputational": 3786,
      "Ġstructures": 3787,
      "ovember": 3788,
      "Ġdiverse": 3789,
      "Ġoffice": 3790,
      "urg": 3791,
      "ĠCong": 3792,
      "Ġ50": 3793,
      "Ġmaterials": 3794,
      "ÑĢÑĭ": 3795,
      "ĠJanuary": 3796,
      "Ġlink": 3797,
      "Ġsources": 3798,
      "Ġweight": 3799,
      "Ġago": 3800,
      "ulated": 3801,
      "Ġrequires": 3802,
      "AT": 3803,
      "ĠAustral": 3804,
      "aly": 3805,
      "Ġtraffic": 3806,
      "Ð»Ñİ": 3807,
      "ĠWill": 3808,
      "ĠHist": 3809,
      "Ġevaluate": 3810,
      "Ġgun": 3811,
      "chnology": 3812,
      "Ġtou": 3813,
      "Ġnumerous": 3814,
      "Ġassess": 3815,
      "Ġfocused": 3816,
      "Ġsport": 3817,
      "Ġtools": 3818,
      "vere": 3819,
      "Ġchoices": 3820,
      "Ġimaging": 3821,
      "Ġproperty": 3822,
      "Ġsituations": 3823,
      "espite": 3824,
      "Ġpretty": 3825,
      "ES": 3826,
      "Ġconsists": 3827,
      "ĠAc": 3828,
      "ĠEvery": 3829,
      "ĠDemocratic": 3830,
      "Ġhonest": 3831,
      "ÑĤÑĭ": 3832,
      "Ġlinear": 3833,
      "ÐºÐµ": 3834,
      "Ġsteps": 3835,
      "ifically": 3836,
      "Ġban": 3837,
      "ĠCNN": 3838,
      "ĠÐ£": 3839,
      "Ġpresence": 3840,
      "Ġcate": 3841,
      "mod": 3842,
      "Ġrock": 3843,
      "Ġshowing": 3844,
      "ÐµÐ´ÐµÑĢÐ°": 3845,
      "ev": 3846,
      "aur": 3847,
      "esign": 3848,
      "Ð¸Ð»Ð¸": 3849,
      "idge": 3850,
      "ĠÑģÐ°Ð¼": 3851,
      "Ġoutcomes": 3852,
      "oud": 3853,
      "Ð¸ÑĤÑĮ": 3854,
      "ĠÐ¾ÑĢ": 3855,
      "RL": 3856,
      "Ġclimate": 3857,
      "Ġeconomy": 3858,
      "Ġeat": 3859,
      "rench": 3860,
      "Ġwebsite": 3861,
      "ees": 3862,
      "Ġ24": 3863,
      "ossible": 3864,
      "Ġbrother": 3865,
      "ÑĬ": 3866,
      "Ġharm": 3867,
      "Ġelectron": 3868,
      "Ġbalance": 3869,
      "Ġinterested": 3870,
      "going": 3871,
      "Ġclassification": 3872,
      "Ġscene": 3873,
      "Ġrelig": 3874,
      "Ġbench": 3875,
      "Ġcalc": 3876,
      "Ġbecoming": 3877,
      "Ġdeaths": 3878,
      "Ġoffic": 3879,
      "iding": 3880,
      "ĠSw": 3881,
      "ĠÐ¶Ðµ": 3882,
      "Ġfigure": 3883,
      "Ġwond": 3884,
      "Ġmoved": 3885,
      "order": 3886,
      "ĠComp": 3887,
      "Ġwasn": 3888,
      "Ġgeomet": 3889,
      "Ġhot": 3890,
      "Ġearl": 3891,
      "ding": 3892,
      "Ġcorrect": 3893,
      "Ġclos": 3894,
      "ares": 3895,
      "Ġincorpor": 3896,
      "earch": 3897,
      "Ð¶Ð°": 3898,
      "ran": 3899,
      "And": 3900,
      "Ġdiv": 3901,
      "Ġstudied": 3902,
      "Ġabstract": 3903,
      "ĠSept": 3904,
      "pre": 3905,
      "ÑģÐ°": 3906,
      "ĠÑĢÑĥ": 3907,
      "ĠKing": 3908,
      "Ġguidance": 3909,
      "Ġmeasures": 3910,
      "Ġexperiments": 3911,
      "ancing": 3912,
      "met": 3913,
      "Ñį": 3914,
      "Ð²ÐµÑĤ": 3915,
      "ĠÐ¾Ð¿": 3916,
      "Ġsold": 3917,
      "Ġlose": 3918,
      "Ġgave": 3919,
      "Ġbackground": 3920,
      "Ð²Ð»Ñı": 3921,
      "ocal": 3922,
      "Ġknew": 3923,
      "ĠNovember": 3924,
      "Ġplayers": 3925,
      "Ġaware": 3926,
      "ÑİÑī": 3927,
      "Ġrap": 3928,
      "ĠArt": 3929,
      "Ġdark": 3930,
      "Ġeffectively": 3931,
      "cember": 3932,
      "ellig": 3933,
      "ĠAlthough": 3934,
      "Ġsmart": 3935,
      "Ġtour": 3936,
      "pril": 3937,
      "Ġ192": 3938,
      "Ġstrategy": 3939,
      "Ġpromot": 3940,
      "AN": 3941,
      "ĠInt": 3942,
      "Ġrelax": 3943,
      "Ġrelease": 3944,
      "Ġready": 3945,
      "Ġchanged": 3946,
      "Ð¾Ð»ÑĮÐºÐ¾": 3947,
      "term": 3948,
      "ĠSm": 3949,
      "Ġrecognition": 3950,
      "ĠĠĠĠĠĠĠĠĠĠĠĠĠĠĠĠĠĠĠĠĠĠĠĠĠĠĠĠĠĠĠĠĠĠĠĠĠĠĠĠĠĠĠĠĠĠĠĠĠĠĠĠĠĠĠĠĠĠĠĠĠĠĠĠĠĠĠĠĠĠĠĠĠĠĠĠĠĠĠĠĠĠĠĠĠĠĠĠĠĠĠĠĠĠĠĠĠĠĠĠĠĠĠĠĠĠĠĠĠĠĠĠĠĠĠĠĠĠĠĠĠĠĠĠĠĠĠĠ": 3951,
      "ounced": 3952,
      "Ġcomprehensive": 3953,
      "Ġtelevision": 3954,
      "itch": 3955,
      "ket": 3956,
      "Ð½Ð¸Ð¸": 3957,
      "],": 3958,
      "Ġserve": 3959,
      "Ġwrote": 3960,
      "Ġversion": 3961,
      "Ġlarger": 3962,
      "ĠCo": 3963,
      "ÑĢÑĥÐ³": 3964,
      "Ġcultural": 3965,
      "edom": 3966,
      "Ġfactor": 3967,
      "Ġcontrast": 3968,
      "ĠBar": 3969,
      "Ġfunctions": 3970,
      "Ġmovement": 3971,
      "ologies": 3972,
      "Ġmoving": 3973,
      "Ġjourney": 3974,
      "ĠAnother": 3975,
      "ÑģÑĤÐ²Ð¾": 3976,
      "ON": 3977,
      "imensional": 3978,
      "Ġconnected": 3979,
      "Ġfinding": 3980,
      "Ġinformed": 3981,
      "Ġteenagers": 3982,
      "ĠUs": 3983,
      "Ġindependent": 3984,
      "ashington": 3985,
      "Ġreducing": 3986,
      "ĠÐ½Ð¾": 3987,
      "Ġsoftware": 3988,
      "Ġhelped": 3989,
      "My": 3990,
      "Ġkid": 3991,
      "Ġseeking": 3992,
      "Ġextreme": 3993,
      "iction": 3994,
      "iden": 3995,
      "Ad": 3996,
      "ĠÑĢÐ°Ð±Ð¾ÑĤ": 3997,
      "Ġinternet": 3998,
      "xiv": 3999,
      "Ġfine": 4000,
      "Ġalge": 4001,
      "aper": 4002,
      "amental": 4003,
      "Ġshap": 4004,
      "Ġheard": 4005,
      "RI": 4006,
      "agree": 4007,
      "Ġtypically": 4008,
      "book": 4009,
      "Ġdespite": 4010,
      "ĠÐ¿ÐµÑĢÐµ": 4011,
      "Ġconfidence": 4012,
      "sych": 4013,
      "Ġhandle": 4014,
      "Ġsus": 4015,
      "Ġlocation": 4016,
      "Ġsets": 4017,
      "Ġlimiting": 4018,
      "Ġrules": 4019,
      "Ġtrouble": 4020,
      "Ð½Ð¾Ð²": 4021,
      "Ġexhib": 4022,
      "Ġthus": 4023,
      "Ð½Ð¾ÑģÑĤÑĮ": 4024,
      "ogle": 4025,
      "Ġworry": 4026,
      "Ġvoice": 4027,
      "lec": 4028,
      "Ġcounty": 4029,
      "eff": 4030,
      "force": 4031,
      "ĠQu": 4032,
      "ĠOverall": 4033,
      "Ġimpossible": 4034,
      "Ð¤": 4035,
      "Ġsett": 4036,
      "ĠMars": 4037,
      "few": 4038,
      "Ġdevices": 4039,
      "Ġourselves": 4040,
      "illing": 4041,
      "ĠHealth": 4042,
      "Ġmis": 4043,
      "Ġadded": 4044,
      "Ġlandscape": 4045,
      "Ġpra": 4046,
      "ĠClinton": 4047,
      "Ġuncertain": 4048,
      "Ġnice": 4049,
      "Ġpatterns": 4050,
      "Ġshop": 4051,
      "Ġresulting": 4052,
      "Ġhear": 4053,
      "Ġimagination": 4054,
      "pped": 4055,
      "Ġasking": 4056,
      "ĠSenate": 4057,
      "Ġscreen": 4058,
      "ÑĤÐ¾Ð²": 4059,
      "Ġdebate": 4060,
      "ĠÐ¿Ð¾ÑģÐ»Ðµ": 4061,
      "Ġconflic": 4062,
      "itution": 4063,
      "ĠPer": 4064,
      "Ġrich": 4065,
      "Ġsuff": 4066,
      "Ġelections": 4067,
      "ĠÐ¼Ð¸": 4068,
      "wide": 4069,
      "Ġearn": 4070,
      "ondon": 4071,
      "Ġsurve": 4072,
      "ĠĠĠĠĠĠĠ": 4073,
      "Ġcosts": 4074,
      "Ġdeveloping": 4075,
      "Ġinterview": 4076,
      "ĠFinally": 4077,
      "Ġproduced": 4078,
      "Ġflex": 4079,
      "Ġdefin": 4080,
      "ÑıÑĤ": 4081,
      "ĠÐ±ÑĭÐ»": 4082,
      "Ġperspective": 4083,
      "ought": 4084,
      "Ġinteresting": 4085,
      "Ġnoise": 4086,
      "orning": 4087,
      "Ġchanging": 4088,
      "Ġdigital": 4089,
      "ript": 4090,
      "ugust": 4091,
      "Ġoffering": 4092,
      "ĠSeptember": 4093,
      "ĠDecember": 4094,
      "Ġlooked": 4095,
      "ĠAng": 4096,
      "Ġ2018": 4097,
      "ĠCongress": 4098,
      "opy": 4099,
      "ĠFace": 4100,
      "Ġadop": 4101,
      "cking": 4102,
      "Ġcritic": 4103,
      "Ġpark": 4104,
      "Ġpros": 4105,
      "Ġ|": 4106,
      "Ġcool": 4107,
      "Ġcities": 4108,
      "Ġfundamental": 4109,
      "Ġpiece": 4110,
      "ĠThrough": 4111,
      "itable": 4112,
      "Ġcover": 4113,
      "rown": 4114,
      "Ġemerg": 4115,
      "Ġnucle": 4116,
      "Ġ2009": 4117,
      "ĠParis": 4118,
      "ems": 4119,
      "ĠJuly": 4120,
      "ÐµÐ½Ð¸Ð¹": 4121,
      "Ġcomplexity": 4122,
      "rought": 4123,
      "Ġhimself": 4124,
      "equ": 4125,
      "Ġcapture": 4126,
      "isms": 4127,
      "ĠÑĪ": 4128,
      "Ġincluded": 4129,
      "Ġpictures": 4130,
      "ham": 4131,
      "ky": 4132,
      "Ġrelative": 4133,
      "Ġinitial": 4134,
      "Ġphen": 4135,
      "ping": 4136,
      "Ġreading": 4137,
      "Ġcamer": 4138,
      "Ġelements": 4139,
      "raction": 4140,
      "Ġemotions": 4141,
      "Ġfeed": 4142,
      "Ġir": 4143,
      "Ġang": 4144,
      "ĠÐ¾Ð´": 4145,
      "Ġconcent": 4146,
      "Ġpursu": 4147,
      "ĠÐ²ÑĢÐµÐ¼": 4148,
      "ÐºÐ°Ð·": 4149,
      "Ġjoin": 4150,
      "Ġtherap": 4151,
      "ests": 4152,
      "Ġpatient": 4153,
      "Ġdirection": 4154,
      "Ġhappened": 4155,
      "ĠGra": 4156,
      "Ġtransfer": 4157,
      "za": 4158,
      "Ġdriverless": 4159,
      "Ġspatial": 4160,
      "Ð¿ÑĢÐ°": 4161,
      "mon": 4162,
      "ĠWork": 4163,
      "Ġpotentially": 4164,
      "Ġinteraction": 4165,
      "Second": 4166,
      "Ð¾ÑģÐº": 4167,
      "Ġimproving": 4168,
      "ĠChurch": 4169,
      "ha": 4170,
      "known": 4171,
      "Ġbelow": 4172,
      "eter": 4173,
      "Ġphase": 4174,
      "Ð½Ð¸Ðº": 4175,
      "Ġrecomm": 4176,
      "Ġpoor": 4177,
      "ĠURL": 4178,
      "Ġdisagree": 4179,
      "Ġcomponents": 4180,
      "estern": 4181,
      "omas": 4182,
      "Finally": 4183,
      "Ġbreat": 4184,
      "Ð¼Ñĥ": 4185,
      "Ġeye": 4186,
      "issions": 4187,
      "ĠApril": 4188,
      "Ġcontinued": 4189,
      "ME": 4190,
      "ey": 4191,
      "rated": 4192,
      "____": 4193,
      "ĠÐ·Ð°Ðº": 4194,
      "Ġcitizens": 4195,
      "Ġadj": 4196,
      "Ġconfir": 4197,
      ".âĢĿ": 4198,
      "Ġtum": 4199,
      "iful": 4200,
      "Ð£": 4201,
      "Ġtests": 4202,
      "ĠDav": 4203,
      "bru": 4204,
      "Ġtruth": 4205,
      "Ġdetails": 4206,
      "inations": 4207,
      "Ġassum": 4208,
      "Ġcelebr": 4209,
      "Ġsust": 4210,
      "Ġhor": 4211,
      "Ġhuge": 4212,
      "ervation": 4213,
      "Ġfederal": 4214,
      "Ġten": 4215,
      "ĠHar": 4216,
      "mosp": 4217,
      "atever": 4218,
      "ĠLondon": 4219,
      "Ġcivil": 4220,
      "overy": 4221,
      "ris": 4222,
      "Ġrefer": 4223,
      "Ð¼Ñĭ": 4224,
      "Ġmolec": 4225,
      "Ð¸Ñı": 4226,
      "Ġcondition": 4227,
      "Ġcreative": 4228,
      "Ġresearchers": 4229,
      "Ġsite": 4230,
      "Ġcourt": 4231,
      "ĠÐ½Ð¸": 4232,
      "Ġquite": 4233,
      "Ġboard": 4234,
      "Ġsolve": 4235,
      "ĠAmericans": 4236,
      "Ġstock": 4237,
      "----": 4238,
      "co": 4239,
      "Ġhour": 4240,
      "Ġmap": 4241,
      "Ġcompletely": 4242,
      "ĠAct": 4243,
      "Ġspent": 4244,
      "Ġobtained": 4245,
      "Ġstri": 4246,
      "ĠFrench": 4247,
      "Ġseems": 4248,
      "bre": 4249,
      "ĠMich": 4250,
      "Ġorganization": 4251,
      "Ġlayer": 4252,
      "Ġprove": 4253,
      "ÑĢÐ¾Ñģ": 4254,
      "ĠOther": 4255,
      "Ġmaintain": 4256,
      "IN": 4257,
      "Ġrout": 4258,
      "fficient": 4259,
      "Ġgenerate": 4260,
      "gen": 4261,
      "bruary": 4262,
      "Ġdevice": 4263,
      "Ġgenerally": 4264,
      "yl": 4265,
      "Ġattract": 4266,
      "ĠWashington": 4267,
      "Ġ]": 4268,
      "ĠDist": 4269,
      "Ġshowed": 4270,
      "Ġheat": 4271,
      "Ġnote": 4272,
      "Ġshared": 4273,
      "Ġforms": 4274,
      "Ġpolicies": 4275,
      "Ġstore": 4276,
      "ster": 4277,
      "Ab": 4278,
      "resp": 4279,
      "Ġpollution": 4280,
      "ĠIndian": 4281,
      "Ġatmosp": 4282,
      "ĠÐ»Ñİ": 4283,
      "Ġlaws": 4284,
      "Ġachieved": 4285,
      "ĠYour": 4286,
      "Ġsoccer": 4287,
      "Ġenvironmental": 4288,
      "urban": 4289,
      "Ġturned": 4290,
      "Ġmiddle": 4291,
      "Ġestablish": 4292,
      "Ġord": 4293,
      "ĠIts": 4294,
      "Ġconstruct": 4295,
      "Ġnom": 4296,
      "onic": 4297,
      "level": 4298,
      "Ġsen": 4299,
      "ĠSom": 4300,
      "Ġdistribut": 4301,
      "Ġbasic": 4302,
      "ugh": 4303,
      "ÑĨÐ°": 4304,
      "Ð»Ð°ÑģÑĤÐ¸": 4305,
      "ĠObama": 4306,
      "Ġeventually": 4307,
      "Ġmaxim": 4308,
      "Ġtheore": 4309,
      "BC": 4310,
      "Ġrecently": 4311,
      "Ġexec": 4312,
      "Ġevol": 4313,
      "Ġmemory": 4314,
      "right": 4315,
      "Ġplays": 4316,
      "Ġ2010": 4317,
      "Ġusers": 4318,
      "Ġreceive": 4319,
      "Ġdescribed": 4320,
      "Ġsmaller": 4321,
      "arse": 4322,
      "Ð½Ñĥ": 4323,
      "Ġexpand": 4324,
      "cil": 4325,
      "ellow": 4326,
      "Ġoutput": 4327,
      "ÐµÐ»Ð¾Ð²": 4328,
      "uro": 4329,
      "ĠÐĽ": 4330,
      "Ġcurfew": 4331,
      "Ġearth": 4332,
      "Ġgon": 4333,
      "ĠJune": 4334,
      "Ġfreedom": 4335,
      "Ġmaster": 4336,
      "Ġearlier": 4337,
      "ĠÑģÑĢÐµÐ´": 4338,
      "Ġspir": 4339,
      "Ġgrand": 4340,
      "ĠÑĩÐ°": 4341,
      "Ġtesting": 4342,
      "ĠAugust": 4343,
      "lim": 4344,
      "ped": 4345,
      "Ġresil": 4346,
      "Ġwhose": 4347,
      "ĠWhite": 4348,
      "Ġtitled": 4349,
      "Ġprivate": 4350,
      "ĠSec": 4351,
      "Ð¾ÑģÑĥÐ´Ð°": 4352,
      "hold": 4353,
      "Ġinfection": 4354,
      "ĠBra": 4355,
      "ÑĤÐ¸Ñı": 4356,
      "board": 4357,
      "Ġcommitment": 4358,
      "Ġlooks": 4359,
      "Ġ2011": 4360,
      "ĠMod": 4361,
      "Ð²Ñĭ": 4362,
      "ĠTV": 4363,
      "scale": 4364,
      "Ġcredit": 4365,
      "25": 4366,
      "ĠFrance": 4367,
      "ÐµÑģÐ¿": 4368,
      "Ġcast": 4369,
      "rupt": 4370,
      "ĠTex": 4371,
      "Ġofficials": 4372,
      "ux": 4373,
      "Ġoutd": 4374,
      "ibilities": 4375,
      "Ġcontinu": 4376,
      "Ġcry": 4377,
      "Ġhtt": 4378,
      "Ġminutes": 4379,
      "ĠÐ¾Ðº": 4380,
      "ĠÑĤÐ°ÐºÐ¶Ðµ": 4381,
      "onom": 4382,
      "Ġdangerous": 4383,
      "Ð¾ÑģÑĥÐ´Ð°ÑĢ": 4384,
      "Ġtried": 4385,
      "ÑģÐºÐ¸Ð¹": 4386,
      "ÐµÑĩ": 4387,
      "Ġelectric": 4388,
      "Ð¾Ð³Ð´Ð°": 4389,
      "Ġfaced": 4390,
      "Ðĳ": 4391,
      "iers": 4392,
      "Ġtend": 4393,
      "ĠÐ¼Ð¾Ð¶": 4394,
      "ira": 4395,
      "ston": 4396,
      "Ġwilling": 4397,
      "Ġsurpr": 4398,
      "Ġvalid": 4399,
      "CA": 4400,
      "lin": 4401,
      "Ġdead": 4402,
      "Ġexpert": 4403,
      "Ġcode": 4404,
      "ÑĨÐ¸Ð¿": 4405,
      "Ġskin": 4406,
      "Ġboundary": 4407,
      "Ġsn": 4408,
      "Ġexpensive": 4409,
      "Ð¾Ð³ÑĢÐ°Ð¼": 4410,
      "ault": 4411,
      "Ġoptimization": 4412,
      "Ġexerc": 4413,
      "Ġpus": 4414,
      "alls": 4415,
      "Ġexperts": 4416,
      "house": 4417,
      "Ġformed": 4418,
      "ĠÑĤÐ¾": 4419,
      "ĠSim": 4420,
      "obile": 4421,
      "Ġsignal": 4422,
      "Ġbusinesses": 4423,
      "Ġmorning": 4424,
      "ÑģÑĤÐ¾Ñı": 4425,
      "Your": 4426,
      "oper": 4427,
      "Ġprocesses": 4428,
      "Ġdynamics": 4429,
      "Ġid": 4430,
      "ĠSch": 4431,
      "Ġoutcome": 4432,
      "Ġvill": 4433,
      "ĠRed": 4434,
      "While": 4435,
      "ĠIndia": 4436,
      "Ġreality": 4437,
      "Ġcouple": 4438,
      "Ġexperiment": 4439,
      "encies": 4440,
      "Ġpresidential": 4441,
      "ĠCanada": 4442,
      "Ġongoing": 4443,
      "emy": 4444,
      "ÑĤÑĮÑģÑı": 4445,
      "val": 4446,
      "ctors": 4447,
      "Ġresponsibility": 4448,
      "Ġhair": 4449,
      "Ġestablished": 4450,
      "Ġexperimental": 4451,
      "Ġcauses": 4452,
      "ĠAg": 4453,
      "Ġcra": 4454,
      "cast": 4455,
      "pri": 4456,
      "Ġbox": 4457,
      "ĠGovern": 4458,
      "aul": 4459,
      "ĠGl": 4460,
      "ĠÑĩÐµÐ»Ð¾Ð²": 4461,
      "Ġimmed": 4462,
      "iam": 4463,
      "CNN": 4464,
      "ops": 4465,
      "Ġplans": 4466,
      "Ġelectors": 4467,
      "Ġphenomen": 4468,
      "abilities": 4469,
      "ÑĨÐ¸Ñı": 4470,
      "unity": 4471,
      "Ġartist": 4472,
      "ception": 4473,
      "Ġmid": 4474,
      "ĠPark": 4475,
      "ÑīÐ°": 4476,
      "Ġinvestigation": 4477,
      "Ġintellig": 4478,
      "Ġadvance": 4479,
      "backs": 4480,
      "roll": 4481,
      "Ġexpression": 4482,
      "ĠFebruary": 4483,
      "eared": 4484,
      "Ġfem": 4485,
      "Ġeth": 4486,
      "ĠReg": 4487,
      "Ġ23": 4488,
      "Ġaffected": 4489,
      "Ġapplication": 4490,
      "Ġcontroll": 4491,
      "Ġfat": 4492,
      "eed": 4493,
      "ford": 4494,
      "reet": 4495,
      "Ġwhatever": 4496,
      "Ġconducted": 4497,
      "Ġbank": 4498,
      "Ġharder": 4499,
      "199": 4500,
      "ÑģÐ»Ð¸": 4501,
      "Ġlength": 4502,
      "ocks": 4503,
      "Ġemp": 4504,
      "ĠÑģÑĤÑĢÐ°": 4505,
      "Ġreson": 4506,
      "They": 4507,
      "ĠÐ´Ð¾Ð»": 4508,
      "Ġneighbor": 4509,
      "ltimately": 4510,
      "Ġbrought": 4511,
      "Ġdoor": 4512,
      "Ġinvolve": 4513,
      "Ġalternative": 4514,
      "ened": 4515,
      "ÑĤÐ¸Ð²": 4516,
      "roduction": 4517,
      "iverse": 4518,
      "Ġdebut": 4519,
      "Ġmagnetic": 4520,
      "Ġconnection": 4521,
      "Ġrespond": 4522,
      "Ġdatab": 4523,
      "Ġ21": 4524,
      "Ġregarding": 4525,
      "bol": 4526,
      "ico": 4527,
      "sec": 4528,
      "Ġscale": 4529,
      "Ġcat": 4530,
      "Ġacqu": 4531,
      "Ġdocument": 4532,
      "itute": 4533,
      "Ġwrite": 4534,
      "ĠGerman": 4535,
      "ĠLeague": 4536,
      "Ġur": 4537,
      "Ġemotional": 4538,
      "Ġmessage": 4539,
      "ĠÐ¿ÑĢÐ¾Ð²": 4540,
      "Ġsatis": 4541,
      "Ġreduced": 4542,
      "Ġannounced": 4543,
      "ĠParty": 4544,
      "ael": 4545,
      "Ġcapital": 4546,
      "Ġfear": 4547,
      "Ġadministration": 4548,
      "ĠAccording": 4549,
      "Ġinvolves": 4550,
      "Ġgeneralization": 4551,
      "Ġ22": 4552,
      "Ġtree": 4553,
      "Ġplanning": 4554,
      "Ġtrade": 4555,
      "nes": 4556,
      "Ġbill": 4557,
      "Ġstarting": 4558,
      "Ġfollowed": 4559,
      "How": 4560,
      "Ġreminder": 4561,
      "ĠCour": 4562,
      "Ġrule": 4563,
      "go": 4564,
      "aughter": 4565,
      "Ġfamous": 4566,
      "Ġperformed": 4567,
      "Ġincome": 4568,
      "Ġ2006": 4569,
      "Ġbed": 4570,
      "Ġgeneration": 4571,
      "Ġpurch": 4572,
      "Ġsell": 4573,
      "Ph": 4574,
      "ille": 4575,
      "Ġultimately": 4576,
      "ĠÑģÐ¾Ð¾Ð±": 4577,
      "ĠÐ³Ð¾Ð´Ñĥ": 4578,
      "Ġwidely": 4579,
      "Ġbur": 4580,
      "iday": 4581,
      "ĠÐ¿Ðµ": 4582,
      "Ġ2020": 4583,
      "ÑĥÐ»ÑĮ": 4584,
      "Ð¸Ð½Ð°": 4585,
      "uments": 4586,
      "Ġbir": 4587,
      "Ġcompar": 4588,
      "Ð·Ñĭ": 4589,
      "Ġbenchmark": 4590,
      "ĠPhil": 4591,
      "Ġqual": 4592,
      "Ġcomfortable": 4593,
      "ĠEuropean": 4594,
      "Ġtemperature": 4595,
      "Ġdoctor": 4596,
      "Ġpreviously": 4597,
      "Ġtruly": 4598,
      "Ġver": 4599,
      "Ġstation": 4600,
      "rael": 4601,
      "Ġmanner": 4602,
      "Ġdefined": 4603,
      "Ġlabeled": 4604,
      "Ġbeautiful": 4605,
      "ĊĠĠĠĠĠĠĠĠĠĠĠĠĠĠĠĠĠĠĠĠĠĠĠĠĠĠĠĠĠĠĠĠ": 4606,
      "Ġuser": 4607,
      "Ġinsight": 4608,
      "Ġforces": 4609,
      "Ġfinite": 4610,
      "Ġdog": 4611,
      "ĠÐ±ÑĭÐ»Ð¾": 4612,
      "Ġinteractions": 4613,
      "dule": 4614,
      "Ġthoughts": 4615,
      "ĠÑįÑĤÐ¾Ð¼": 4616,
      "ĠTherefore": 4617,
      "Ġwarm": 4618,
      "ros": 4619,
      "ampions": 4620,
      "Ġmill": 4621,
      "Ġsamples": 4622,
      "Ġthous": 4623,
      "Ġfresh": 4624,
      "Ġenter": 4625,
      "Ġpsych": 4626,
      "ĠPre": 4627,
      "Ð»ÐµÐ½Ð¸Ñı": 4628,
      "Ġspin": 4629,
      "Ġanalyz": 4630,
      "60": 4631,
      "Stud": 4632,
      "otic": 4633,
      "oul": 4634,
      "Ð½Ð¸ÑĨÐ¸Ð¿": 4635,
      "Ġfinally": 4636,
      "ĠÐ¤ÐµÐ´ÐµÑĢÐ°": 4637,
      "ech": 4638,
      "Ġserves": 4639,
      "hips": 4640,
      "ĠÑģÐ¾Ð²": 4641,
      "Ġ40": 4642,
      "Ġprincipal": 4643,
      "Ġpixel": 4644,
      "key": 4645,
      "ĠCor": 4646,
      "Ġvoting": 4647,
      "ogen": 4648,
      "Ġtable": 4649,
      "ĠHaving": 4650,
      "Ġappropri": 4651,
      "Ġcenter": 4652,
      "Ġhappens": 4653,
      "Ġbelief": 4654,
      "US": 4655,
      "ĠMon": 4656,
      "Ġwave": 4657,
      "Ġaspects": 4658,
      "ints": 4659,
      "Ġevaluated": 4660,
      "Ð»Ð¾Ð²": 4661,
      "Ġdreams": 4662,
      "Ġahead": 4663,
      "ĠBr": 4664,
      "Ġpeace": 4665,
      "Ġleads": 4666,
      "ĠTrans": 4667,
      "40": 4668,
      "ĠSegmentation": 4669,
      "Ġintroduce": 4670,
      "Ġpassion": 4671,
      "Ġencourage": 4672,
      "Ġnavig": 4673,
      "ĠÐ¾ÑĢÐ³Ð°": 4674,
      "ĠÐ±ÐµÐ·": 4675,
      "Ġpurs": 4676,
      "abel": 4677,
      "ĠWell": 4678,
      "Ġ190": 4679,
      "Ġoptimal": 4680,
      "Ġincreasingly": 4681,
      "ĠÐķ": 4682,
      "oder": 4683,
      "Ð½Ð¸ÑĨÐ¸Ð¿Ð°Ð»ÑĮ": 4684,
      "))": 4685,
      "Im": 4686,
      "tical": 4687,
      "oration": 4688,
      "ĠÑģÐ¾Ð±": 4689,
      "Ġmeeting": 4690,
      "ĠGermany": 4691,
      "ĠÐ·Ð½Ð°": 4692,
      "Ðĵ": 4693,
      "ĠMark": 4694,
      "ÑĢÐ¸Ñı": 4695,
      "Ġsustain": 4696,
      "ĠÑģÐ¸": 4697,
      "Ġcontributions": 4698,
      "Ġbud": 4699,
      "ida": 4700,
      "Ġedge": 4701,
      "Ġconstra": 4702,
      "Ġshift": 4703,
      "Ġseek": 4704,
      "Ġpack": 4705,
      "pping": 4706,
      "Ġrise": 4707,
      "ĠÐłÐ¾ÑģÑģÐ¸Ð¸": 4708,
      "urance": 4709,
      "advant": 4710,
      "Con": 4711,
      "Ġwife": 4712,
      "overed": 4713,
      "math": 4714,
      "Ġmention": 4715,
      "Ġconnections": 4716,
      "Ġ+": 4717,
      "ĠSan": 4718,
      "ara": 4719,
      "ĠEngland": 4720,
      "Ð¾ÐºÐ°": 4721,
      "ught": 4722,
      "Ġvibr": 4723,
      "Ġobserved": 4724,
      "Ġvac": 4725,
      "Ġalgebra": 4726,
      "ĠÐ¾Ð±ÑĢÐ°Ð·": 4727,
      "Ġteams": 4728,
      "Ġgonna": 4729,
      "Ġdifferences": 4730,
      "Ġdirector": 4731,
      "Ġplatform": 4732,
      "Ġ2007": 4733,
      "ĠTexas": 4734,
      "Ġbul": 4735,
      "Ġlunch": 4736,
      "Ð¸ÑĤÐµÐ»ÑĮ": 4737,
      "Ð¾Ð²Ð¾ÑĢ": 4738,
      "Ġtraits": 4739,
      "Ġrelevant": 4740,
      "ĠBer": 4741,
      "ension": 4742,
      "ÑĨÐ¸Ð¾Ð½": 4743,
      "erences": 4744,
      "Ġarxiv": 4745,
      "Ġprefer": 4746,
      "Ġpresented": 4747,
      "Ð»ÐµÐº": 4748,
      "Ġpush": 4749,
      "Ð±Ðµ": 4750,
      "Ġconsidering": 4751,
      "ĠÐ³Ð¾ÑģÑĥÐ´Ð°ÑĢ": 4752,
      "Ð½Ð¸ÑģÑĤ": 4753,
      "Ġcarry": 4754,
      "respond": 4755,
      "ĠGod": 4756,
      "Ġran": 4757,
      "Ġtestament": 4758,
      "OR": 4759,
      "ĠTheir": 4760,
      "Ġdemand": 4761,
      "och": 4762,
      "Ġoperations": 4763,
      "Ð±Ð¾": 4764,
      "Ġpassed": 4765,
      "change": 4766,
      "Ġattending": 4767,
      "linear": 4768,
      "Ġcontribute": 4769,
      "Ġdiseases": 4770,
      "bon": 4771,
      "uk": 4772,
      "Ġlargest": 4773,
      "Ġaw": 4774,
      "ĠSecond": 4775,
      "Ġleaving": 4776,
      "Ġround": 4777,
      "ription": 4778,
      "Ġca": 4779,
      "Ġvary": 4780,
      "ĠOver": 4781,
      "Ġmaintaining": 4782,
      "iled": 4783,
      "Ġsad": 4784,
      "Ġscientific": 4785,
      "anging": 4786,
      "Ġdivid": 4787,
      "Ġthats": 4788,
      "Ġskill": 4789,
      "ÑĤÑĥ": 4790,
      "Ġfeelings": 4791,
      "Ġ189": 4792,
      "arter": 4793,
      "Ġshoot": 4794,
      "craft": 4795,
      "Ġknowing": 4796,
      "ĠRussian": 4797,
      "ĠÑģÐ»Ñĥ": 4798,
      "Ð¾ÑģÑĮ": 4799,
      "Ġbecomes": 4800,
      "lights": 4801,
      "Ġchann": 4802,
      "ĠEast": 4803,
      "Ġblock": 4804,
      "ste": 4805,
      "iny": 4806,
      "Ġconclud": 4807,
      "Ġsevere": 4808,
      "field": 4809,
      "Ġcrow": 4810,
      "ĠGoogle": 4811,
      "icip": 4812,
      "ĠDuring": 4813,
      "Ġscore": 4814,
      "ota": 4815,
      "ype": 4816,
      "70": 4817,
      "Ġstreets": 4818,
      "Ġreliable": 4819,
      "eless": 4820,
      "Ġexactly": 4821,
      "ĠCons": 4822,
      "aint": 4823,
      "undred": 4824,
      "ĠRiver": 4825,
      "ker": 4826,
      "inese": 4827,
      "Ġcentral": 4828,
      "ÐĽ": 4829,
      "iles": 4830,
      "azing": 4831,
      "Ġerror": 4832,
      "Ġvehicle": 4833,
      "Ġkindness": 4834,
      "Ġschedule": 4835,
      "inate": 4836,
      "Ġelement": 4837,
      "Ġdrivers": 4838,
      "Ġprepared": 4839,
      "Ġsurrounding": 4840,
      "load": 4841,
      "ĠÐ²ÑĢÐµÐ¼Ñı": 4842,
      "porary": 4843,
      "Ġboundaries": 4844,
      "==": 4845,
      "Ġprotein": 4846,
      "Ġforget": 4847,
      "Ġapply": 4848,
      "Ġpromising": 4849,
      "Â»,": 4850,
      "Ġatmosphere": 4851,
      "Ġ$\\": 4852,
      "orge": 4853,
      "ĠSince": 4854,
      "Ġcommunicate": 4855,
      "Ġfilms": 4856,
      "bert": 4857,
      "ĠÐ§": 4858,
      "ords": 4859,
      "That": 4860,
      "ĠImage": 4861,
      "ĠHistory": 4862,
      "ded": 4863,
      "Ġconfident": 4864,
      "Ġmostly": 4865,
      "Ġinvestment": 4866,
      "80": 4867,
      "Ġmanu": 4868,
      "ĠÐ³ÑĢÐ°": 4869,
      "Ġcouldn": 4870,
      "iac": 4871,
      "ny": 4872,
      "Ġcapac": 4873,
      "ÑĨÐµ": 4874,
      "Ġinterp": 4875,
      "Ġtrends": 4876,
      "zy": 4877,
      "Ġhop": 4878,
      "Ġdisadvant": 4879,
      "Ġtitle": 4880,
      "Ġshowc": 4881,
      "Ġstaying": 4882,
      "Ġapprec": 4883,
      "Ġsynt": 4884,
      "tra": 4885,
      "ĠÑĤÐ¾Ð¼": 4886,
      "Ġleader": 4887,
      "Ġrapid": 4888,
      "Ġfounded": 4889,
      "vious": 4890,
      "Ġteaching": 4891,
      "ĠÑģÐ²": 4892,
      "Ġmedic": 4893,
      "Ġrat": 4894,
      "Ġmotivation": 4895,
      "ÑģÐ¾Ð²": 4896,
      "odies": 4897,
      "Ð½ÑĭÐ¼Ð¸": 4898,
      "ÑĤÐ¾Ð¼": 4899,
      "Ġlayers": 4900,
      "Ġpul": 4901,
      "Ġspending": 4902,
      "Ġmeaningful": 4903,
      "down": 4904,
      "After": 4905,
      "Ġanc": 4906,
      "Ġinvestigate": 4907,
      "Ġlabels": 4908,
      "Ġdate": 4909,
      "osen": 4910,
      "Ġresilience": 4911,
      "Ġappeared": 4912,
      "ĠÐ¼ÑĥÐ½Ð¸ÑĨÐ¸Ð¿Ð°Ð»ÑĮ": 4913,
      "Ġpursue": 4914,
      "Ġhol": 4915,
      "Ġweather": 4916,
      "ĠÐ¸ÑģÐ¿": 4917,
      "ĠRussia": 4918,
      "xi": 4919,
      "Ġvictory": 4920,
      "ĠLat": 4921,
      "ĠâĢĺ": 4922,
      "orph": 4923,
      "Ġstreet": 4924,
      "Ġidentified": 4925,
      "Ġorganizations": 4926,
      "ÐµÑĤÐ°": 4927,
      "ĠÐ°Ð²": 4928,
      "rief": 4929,
      "Ġextended": 4930,
      "ÐµÐ½Ð¸Ñİ": 4931,
      "Ġmath": 4932,
      "ĠNetwork": 4933,
      "Ġpeers": 4934,
      "Ġstruggle": 4935,
      "Ġmanufact": 4936,
      "unt": 4937,
      "Ġden": 4938,
      "Ð¹ÑģÐºÐ¾Ð¹": 4939,
      "Ġcris": 4940,
      "oes": 4941,
      "ician": 4942,
      "Ġbehavi": 4943,
      "Ġlines": 4944,
      "Ġlegis": 4945,
      "Ġconstantly": 4946,
      "Ġworkers": 4947,
      "Ġdamage": 4948,
      "etime": 4949,
      "ĠÐ²Ðµ": 4950,
      "rix": 4951,
      "Ġmathematical": 4952,
      "Ġwonder": 4953,
      "Ġcapable": 4954,
      "Sh": 4955,
      "enty": 4956,
      "avirus": 4957,
      "Ġdetailed": 4958,
      "ĠMoreover": 4959,
      "CT": 4960,
      "ĠCourt": 4961,
      "uit": 4962,
      "Ġplant": 4963,
      "Ġdecades": 4964,
      "Ġmort": 4965,
      "Ġequations": 4966,
      "ÐĹ": 4967,
      "ÑĤÐµÑĢ": 4968,
      "rian": 4969,
      "ÑģÐºÐ¸Ñħ": 4970,
      "ÐµÐ½Ð¸ÐµÐ¼": 4971,
      "Ġuncertainty": 4972,
      "mission": 4973,
      "Ġtouch": 4974,
      "Ġrely": 4975,
      "Ġcomputers": 4976,
      "At": 4977,
      "Ġ2000": 4978,
      "Ġpair": 4979,
      "Ġlisten": 4980,
      "iar": 4981,
      "čĊ": 4982,
      "Ġyes": 4983,
      "ĠÑįÐº": 4984,
      "Ġhous": 4985,
      "Ġspaces": 4986,
      "Ġimmig": 4987,
      "Ġforeign": 4988,
      "Ġmetric": 4989,
      "Ġclassical": 4990,
      "Ġemb": 4991,
      "ĠNAS": 4992,
      "Ġphysics": 4993,
      "Ð¿Ð¸": 4994,
      "Ġsch": 4995,
      "Ġisol": 4996,
      "Ġbeginning": 4997,
      "inn": 4998,
      "NT": 4999,
      "Ġ26": 5000,
      "Ġcontract": 5001,
      "Ġmatch": 5002,
      "Ġwait": 5003,
      "Ġthr": 5004,
      "ĠÑĢÐ°Ð¹": 5005,
      "Ġwinning": 5006,
      "Ġdiagnosis": 5007,
      "Ġwat": 5008,
      "Ġtalent": 5009,
      "ographic": 5010,
      "Ġiniti": 5011,
      "Ġinnovative": 5012,
      "24": 5013,
      "Ġmut": 5014,
      "Ġproced": 5015,
      "Ġraised": 5016,
      "ĠIsrael": 5017,
      "ÑĥÑĩ": 5018,
      "Ġphil": 5019,
      "ooth": 5020,
      "gress": 5021,
      "Ġlabor": 5022,
      "Ġelected": 5023,
      "Ġoil": 5024,
      "Ġdrop": 5025,
      "ÑĨÐ¸Ð°Ð»ÑĮ": 5026,
      "Ġrestaur": 5027,
      "Ġswe": 5028,
      "Ġforced": 5029,
      "Ġstaff": 5030,
      "utive": 5031,
      "Ġrecognize": 5032,
      "Ġsequence": 5033,
      "Ġscenari": 5034,
      "Ġincred": 5035,
      "Ġaward": 5036,
      "anned": 5037,
      "Ġessay": 5038,
      "Ġmer": 5039,
      "Ġevolution": 5040,
      "Ġ2008": 5041,
      "Ġcorrespond": 5042,
      ",âĢĿ": 5043,
      "IV": 5044,
      "ĠAnt": 5045,
      "Ġguide": 5046,
      "oding": 5047,
      "ĠWal": 5048,
      "Ġknows": 5049,
      "Ġassignments": 5050,
      "Ġadvanced": 5051,
      "ĠPat": 5052,
      "ĠÐĹ": 5053,
      "Ġpolitics": 5054,
      "Ġenhance": 5055,
      "Ġlever": 5056,
      "Ġmodule": 5057,
      "Ġpractices": 5058,
      "ĠÐ²Ð¸": 5059,
      "ĠResults": 5060,
      "Ġspirit": 5061,
      "cks": 5062,
      "atically": 5063,
      "ĠAre": 5064,
      "Ġpaying": 5065,
      "De": 5066,
      "Ġaren": 5067,
      "ĠÐ´Ð°": 5068,
      "Ġemployees": 5069,
      "Ġwalking": 5070,
      "{\\": 5071,
      "Ġalthough": 5072,
      "ĠÐ¸Ñħ": 5073,
      "Ġnorth": 5074,
      "Ð´ÐµÑĢ": 5075,
      "Ġfavorite": 5076,
      "gra": 5077,
      "Ġexperienced": 5078,
      "Ġfost": 5079,
      "Ġtechnologies": 5080,
      "omp": 5081,
      "ĠNavig": 5082,
      "ĠLet": 5083,
      "Ġtiss": 5084,
      "oma": 5085,
      "coming": 5086,
      "Ġunderlying": 5087,
      "Ġx": 5088,
      "ÑĢÐ¾Ð¼": 5089,
      "pper": 5090,
      "New": 5091,
      "orter": 5092,
      "ago": 5093,
      "Ġadults": 5094,
      "Ġseeing": 5095,
      "Ġmovie": 5096,
      "ĠÐ¯": 5097,
      "Ġconver": 5098,
      "Ġcounter": 5099,
      "Ġtired": 5100,
      "ĠThomas": 5101,
      "Ġdepending": 5102,
      "itation": 5103,
      "ference": 5104,
      "Ġdistinct": 5105,
      "Ġrare": 5106,
      "Ġdiscrim": 5107,
      "Ġcharacteristics": 5108,
      "ST": 5109,
      "itter": 5110,
      "Ġhurt": 5111,
      "Ġreached": 5112,
      "Ġenab": 5113,
      "Ġdetermined": 5114,
      "Ġurban": 5115,
      "ÑĦÐ¾ÑĢ": 5116,
      "ĠGree": 5117,
      "Ġment": 5118,
      "ĠÑĤÐµÑĢ": 5119,
      "ancy": 5120,
      "ĠÐ´ÑĢÑĥÐ³": 5121,
      "Ġchemical": 5122,
      "Ġemissions": 5123,
      "Ġfailed": 5124,
      "ĠAssoci": 5125,
      "Ġnearly": 5126,
      "Ġresolution": 5127,
      "ĠChinese": 5128,
      "Ġeight": 5129,
      "ĠEach": 5130,
      "anch": 5131,
      "Ġcreativity": 5132,
      "Ġadding": 5133,
      "ĠÐ±ÑĥÐ´": 5134,
      "Ġfir": 5135,
      "Ġstronger": 5136,
      "Ġclosely": 5137,
      "Ġmount": 5138,
      "ÐµÑĢÐ°": 5139,
      "ĠMinister": 5140,
      "Ð²Ð¾Ð´": 5141,
      "Ġfuel": 5142,
      "Ġkn": 5143,
      "22": 5144,
      "ET": 5145,
      "dimensional": 5146,
      "urrent": 5147,
      "Ġdiscover": 5148,
      "Ġcamera": 5149,
      "Ġshouldn": 5150,
      "Ġidentity": 5151,
      "Ġbrand": 5152,
      "Ġobtain": 5153,
      "Ġboy": 5154,
      "oday": 5155,
      "ero": 5156,
      "ĠÐ±Ð¾Ð»ÑĮ": 5157,
      "Ġbasket": 5158,
      "ĠGeneral": 5159,
      "iling": 5160,
      "ĠÐ¿Ð¾Ð¼": 5161,
      "ĠÑĥÑĩÐ°": 5162,
      "Ġenjoyable": 5163,
      "Ġvehicles": 5164,
      "ĠMa": 5165,
      "Ð¾ÑĢÐ¾": 5166,
      "Ġadjust": 5167,
      "Ġesc": 5168,
      "ÑģÑĤÐ°Ð½Ð¾Ð²": 5169,
      "Ġassist": 5170,
      "Ġprofession": 5171,
      "ÑĢÐ¾Ð²Ð°": 5172,
      "Ð·Ð°ÑĨÐ¸Ð¸": 5173,
      "Ġcompetitive": 5174,
      "Ġhomes": 5175,
      "anish": 5176,
      "Ġscientists": 5177,
      "Ġreliability": 5178,
      "ĠÐľÐ¾ÑģÐº": 5179,
      "world": 5180,
      "Ð¼ÐµÑĢ": 5181,
      "Ġappeal": 5182,
      "Ġkilled": 5183,
      "ĠJames": 5184,
      "Ġleaders": 5185,
      "Ġpromote": 5186,
      "ĠÑģÑĤÐ°": 5187,
      "ĠÐĿÐ°": 5188,
      "ĠAcad": 5189,
      "Ġgone": 5190,
      "unning": 5191,
      "Ġspeech": 5192,
      "Ġappropriate": 5193,
      "Ġkeeping": 5194,
      "Ex": 5195,
      "Ġ#": 5196,
      "place": 5197,
      "Ġneighborhood": 5198,
      "Ġhundred": 5199,
      "ĠMex": 5200,
      "Ġviolence": 5201,
      "acters": 5202,
      "uzz": 5203,
      "ula": 5204,
      "Ġperspectives": 5205,
      "Be": 5206,
      "Ġaims": 5207,
      "ĠAngel": 5208,
      "agraph": 5209,
      "Ġdisplay": 5210,
      "ĠÐ¼Ñĭ": 5211,
      "Ġship": 5212,
      "AP": 5213,
      "Te": 5214,
      "eem": 5215,
      "ĠHol": 5216,
      "ĠÐ½Ð¾Ð²": 5217,
      "Ġentertain": 5218,
      "Ġwealth": 5219,
      "Ġdie": 5220,
      "Ġgenerated": 5221,
      "Ġanti": 5222,
      "Ġ28": 5223,
      "Ð½Ð¸Ð¹": 5224,
      "Ġpractical": 5225,
      "čĊč": 5226,
      "Ġwild": 5227,
      "Ð±ÑĢÑı": 5228,
      "arian": 5229,
      "Ġbond": 5230,
      "Ġstated": 5231,
      "ĠÐ¿ÐµÑĢ": 5232,
      "Ġsemi": 5233,
      "Ġauth": 5234,
      "Ð¶Ð¸": 5235,
      "Ġsympt": 5236,
      "inating": 5237,
      "Ġcorn": 5238,
      "Ġhyp": 5239,
      "ograp": 5240,
      "Ġadvers": 5241,
      "ĠWhy": 5242,
      "ÑĦÐ¸": 5243,
      "ĠDistrict": 5244,
      "atures": 5245,
      "Ġ60": 5246,
      "Ġillust": 5247,
      "Ġrepe": 5248,
      "Ġsick": 5249,
      "Ġwid": 5250,
      "Ġbeauty": 5251,
      "ĠTechnology": 5252,
      "ios": 5253,
      "Ð°Ð¹": 5254,
      "Ġweap": 5255,
      "ifying": 5256,
      "Ġviews": 5257,
      "ĠÐ¸Ð¼": 5258,
      "Ð¾Ð½Ð¾Ð¼": 5259,
      "IC": 5260,
      "Ġign": 5261,
      "entional": 5262,
      "Ġbillion": 5263,
      "ĠÑĥÑģ": 5264,
      "Ġprepare": 5265,
      "vention": 5266,
      "Ġclosed": 5267,
      "ĠInternational": 5268,
      "Ð¾ÑģÑĤÐ¸": 5269,
      "ĠUK": 5270,
      "ront": 5271,
      "rol": 5272,
      "othes": 5273,
      "Ġdepends": 5274,
      "Ġopened": 5275,
      "Ġconflict": 5276,
      "ĠAir": 5277,
      "Ġdoll": 5278,
      "Ġshot": 5279,
      "ĠÐ¾ÑĢÐ³Ð°Ð½Ð¸": 5280,
      "Ð½Ð¸ÐºÐ°": 5281,
      "Ġadvoc": 5282,
      "Ġspot": 5283,
      "uke": 5284,
      "Ġkill": 5285,
      "ĠNavigation": 5286,
      "Ġfacing": 5287,
      "cles": 5288,
      "ocol": 5289,
      "Ġpeop": 5290,
      "iences": 5291,
      "ÐºÐ¾Ð¼": 5292,
      "uman": 5293,
      "ĠÑĤÑĭ": 5294,
      "Ġgreatest": 5295,
      "ĠBlack": 5296,
      "Site": 5297,
      "Ġamazing": 5298,
      "With": 5299,
      "ica": 5300,
      "Ġitems": 5301,
      "ĠÑĢÐ°Ð·Ð²Ð¸": 5302,
      "Ġdrama": 5303,
      "ortion": 5304,
      "Ð²Ð»ÐµÐ½Ð¸Ñı": 5305,
      "ĠÐ¾Ð±Ð»Ð°ÑģÑĤÐ¸": 5306,
      "Ġafford": 5307,
      "Ġpieces": 5308,
      "ĠLa": 5309,
      "Ġgold": 5310,
      "Ġselection": 5311,
      "Ġsolar": 5312,
      "Ġslight": 5313,
      "Ġemergency": 5314,
      "Ġpage": 5315,
      "Ġquote": 5316,
      "ĠDavid": 5317,
      "Ġobst": 5318,
      "being": 5319,
      "Ġ>": 5320,
      "Ġneut": 5321,
      "ube": 5322,
      "ructure": 5323,
      "sert": 5324,
      "Ð¾Ð»Ð¸": 5325,
      "Ġdefe": 5326,
      "Ġclustering": 5327,
      "rm": 5328,
      "Ġhighest": 5329,
      "wood": 5330,
      "ĠBi": 5331,
      "ĠBo": 5332,
      "Ġburn": 5333,
      "Ġtaught": 5334,
      "Ġbasis": 5335,
      "rees": 5336,
      "ĠSer": 5337,
      "Ġtrial": 5338,
      "Ġcharacters": 5339,
      "Ġcontrovers": 5340,
      "ĠĠĊ": 5341,
      "Ġdistrict": 5342,
      "Ġhealthier": 5343,
      "Ġembra": 5344,
      "ria": 5345,
      "itc": 5346,
      "ĠPal": 5347,
      "Ġrealize": 5348,
      "Ġconstruction": 5349,
      "tr": 5350,
      "21": 5351,
      "Dear": 5352,
      "la": 5353,
      "Ġdecl": 5354,
      "ett": 5355,
      "Ġsouth": 5356,
      "Ġspecifically": 5357,
      "ĠÑĤÐ¾Ð»ÑĮÐºÐ¾": 5358,
      "Ġexercise": 5359,
      "ander": 5360,
      "Ġ%": 5361,
      "Ġcapacity": 5362,
      "ingu": 5363,
      "Ġtoward": 5364,
      "ĠBeing": 5365,
      "Ġstars": 5366,
      "ÑģÑĤÑĥÐ¿": 5367,
      "ĠRo": 5368,
      "Ð³ÑĢÐ°": 5369,
      "Ġwaste": 5370,
      "Ġtail": 5371,
      "uries": 5372,
      "Ġimagine": 5373,
      "99": 5374,
      "Ġconsistent": 5375,
      "Ð½ÑĥÑİ": 5376,
      "Ġunable": 5377,
      "Ġextensive": 5378,
      "look": 5379,
      "Ġlots": 5380,
      ".\\": 5381,
      "Ġcommer": 5382,
      "Ġvirt": 5383,
      "Ġanalyze": 5384,
      "Ġbeg": 5385,
      "ÑĪÐ°": 5386,
      "ĠJeff": 5387,
      "Ġmissing": 5388,
      "Ġmeant": 5389,
      "Ġcompleted": 5390,
      "Â».": 5391,
      "iance": 5392,
      "Ġbattle": 5393,
      "roud": 5394,
      "Ġunivers": 5395,
      "Ġstatus": 5396,
      "ipped": 5397,
      "Ġ<": 5398,
      "icy": 5399,
      "Ġlibr": 5400,
      "thern": 5401,
      "atter": 5402,
      "Ġpaid": 5403,
      "IT": 5404,
      "Ġsecret": 5405,
      "ĠNews": 5406,
      ".)": 5407,
      "amil": 5408,
      "Ġseven": 5409,
      "ocial": 5410,
      "ierarch": 5411,
      "design": 5412,
      "Ġtells": 5413,
      "Ġcrisis": 5414,
      "Ð¾Ñĩ": 5415,
      "unk": 5416,
      "Ġoverw": 5417,
      "Ġhighlights": 5418,
      "Ġgrav": 5419,
      "ĠSpec": 5420,
      "astly": 5421,
      "ĠCenter": 5422,
      "pe": 5423,
      "part": 5424,
      "ÑĪÐ¸": 5425,
      "Ġcharts": 5426,
      "Ġnuclear": 5427,
      "Ġmanif": 5428,
      "Ġexploring": 5429,
      "Ġconven": 5430,
      "Ġcausing": 5431,
      "Ġjoined": 5432,
      "Ġbelieved": 5433,
      "Ġemail": 5434,
      "istan": 5435,
      "!''": 5436,
      "enses": 5437,
      "Ġsecure": 5438,
      "Ġefficiently": 5439,
      "iced": 5440,
      "Ġaccident": 5441,
      "bl": 5442,
      "resents": 5443,
      "ĠBiden": 5444,
      "Ġattended": 5445,
      "hern": 5446,
      "eren": 5447,
      "ĠInc": 5448,
      "ĠÐ¾Ð±ÑĬ": 5449,
      "roy": 5450,
      "Ġwatching": 5451,
      "75": 5452,
      "DE": 5453,
      "eper": 5454,
      "ĠUnion": 5455,
      "Ġtransition": 5456,
      "hether": 5457,
      "Ġpen": 5458,
      "ĠKore": 5459,
      "ĠÐ²Ñģ": 5460,
      "Ð¾Ð»ÑĮÐ·": 5461,
      "Ġconversation": 5462,
      "35": 5463,
      "ummer": 5464,
      "Ġ...": 5465,
      "idden": 5466,
      "Ð½Ð¸Ð¼Ð°": 5467,
      "ĠLife": 5468,
      "ipl": 5469,
      "Ġpan": 5470,
      "Ġappoint": 5471,
      "Ġimplementation": 5472,
      "Ġdimens": 5473,
      "ĠÑĢÐ°Ñģ": 5474,
      "fra": 5475,
      "ÐºÑĢÐ°": 5476,
      "45": 5477,
      "Ġformation": 5478,
      "Ġtelling": 5479,
      "elines": 5480,
      "Ð°Ð·": 5481,
      "Ġprem": 5482,
      "ĠSte": 5483,
      "Ġcoach": 5484,
      "alt": 5485,
      "Ġdatabase": 5486,
      "Ġfra": 5487,
      "ĠÐ´Ð¾Ð¼": 5488,
      "Ġsuggests": 5489,
      "Ġterror": 5490,
      "Ġnut": 5491,
      "orters": 5492,
      "class": 5493,
      "Ġrecommend": 5494,
      "ĠSystem": 5495,
      "Ġdress": 5496,
      "Ġoverwhel": 5497,
      "outhern": 5498,
      "Ġhistorical": 5499,
      "Ġprobability": 5500,
      "Ġlesson": 5501,
      "pected": 5502,
      "ÐµÐ½Ñĭ": 5503,
      "Ġmotivated": 5504,
      "ĠInstead": 5505,
      "CL": 5506,
      "ĠSand": 5507,
      "Ġmethodology": 5508,
      "RO": 5509,
      "Ġtast": 5510,
      "ius": 5511,
      "Ð¸Ð»ÑĮ": 5512,
      "ĠVal": 5513,
      "Ġauthors": 5514,
      "Ġproud": 5515,
      "Ġcircum": 5516,
      "DS": 5517,
      "rete": 5518,
      "ĠAut": 5519,
      "Ġcustomers": 5520,
      "band": 5521,
      "icated": 5522,
      "aming": 5523,
      "Ġcontain": 5524,
      "htt": 5525,
      "Ġfans": 5526,
      "ĠNASA": 5527,
      ",''": 5528,
      "Ġvideos": 5529,
      "free": 5530,
      "Ð¯": 5531,
      "Ġuniverse": 5532,
      "ÑģÑĤÐ°Ð²Ð¸": 5533,
      "Ġexcell": 5534,
      "Ġpixels": 5535,
      "Ġbudget": 5536,
      "Ġlung": 5537,
      "rial": 5538,
      "Ġdescribe": 5539,
      "Insert": 5540,
      "Ġmotion": 5541,
      "Ã¡": 5542,
      "Ġroll": 5543,
      "ĠÐ½Ð°Ñĩ": 5544,
      "Ð´Ð¸Ð½": 5545,
      "Ġaccomplishment": 5546,
      "AL": 5547,
      "ki": 5548,
      "ÑīÐ¸": 5549,
      "Ġartists": 5550,
      "Ð¾ÑĢÐ°": 5551,
      "Ġ29": 5552,
      "Ġcarefully": 5553,
      "hetic": 5554,
      "ĠBay": 5555,
      "Ġotherwise": 5556,
      "ĠÐŃ": 5557,
      "Ġ27": 5558,
      "Ġcontains": 5559,
      "ĠVir": 5560,
      "Ġbiggest": 5561,
      "ĠStreet": 5562,
      "Ġmechanism": 5563,
      "tee": 5564,
      "akers": 5565,
      "ĠÐ¿Ð»Ð°": 5566,
      "ĠMond": 5567,
      "Ġfocusing": 5568,
      "Ġcloser": 5569,
      "edy": 5570,
      "Ġleadership": 5571,
      "Ġvictim": 5572,
      "ĠAfrican": 5573,
      "inent": 5574,
      "orida": 5575,
      "ĠHill": 5576,
      "ĠÐ¿ÑĢÐ¾Ð¸Ð·": 5577,
      "Ġaimed": 5578,
      "orrow": 5579,
      "ĠRich": 5580,
      "Ġattacks": 5581,
      "lands": 5582,
      "Ġconfirmed": 5583,
      "ĠSometimes": 5584,
      "85": 5585,
      "ĠSenator": 5586,
      "ĠÐ³Ð¾ÑĢÐ¾Ð´": 5587,
      "Ġthousands": 5588,
      "Ġphilos": 5589,
      "Ġraces": 5590,
      "CN": 5591,
      "ĠAtt": 5592,
      "icit": 5593,
      "Ġlessons": 5594,
      "Ġintroduced": 5595,
      "active": 5596,
      "Ġintelligence": 5597,
      "eline": 5598,
      "ĠExper": 5599,
      "Ġsend": 5600,
      "Ġsparse": 5601,
      "Ġcompl": 5602,
      "Ġaccurately": 5603,
      "ĠDonald": 5604,
      "ĠÐ±Ð¾Ð»": 5605,
      "Ġvibrant": 5606,
      "ĠMart": 5607,
      "Ġ1990": 5608,
      "Ġreb": 5609,
      "ĠOff": 5610,
      "Ġequival": 5611,
      "Ġinteractive": 5612,
      "Ġsort": 5613,
      "Ġsupervised": 5614,
      "Is": 5615,
      "ĠÐ±ÑĭÐ»Ð¸": 5616,
      "Ġhospitalizations": 5617,
      "Ġinstru": 5618,
      "Ġmoments": 5619,
      "Ġvillage": 5620,
      "Tr": 5621,
      "ĠUsing": 5622,
      "Ġweb": 5623,
      "ternal": 5624,
      "ĠEmerson": 5625,
      "mp": 5626,
      "Ġconve": 5627,
      "ĠÐ³Ð»Ð°": 5628,
      "phones": 5629,
      "Ġcold": 5630,
      "Ġcrim": 5631,
      "Ġinterpret": 5632,
      "Ġpeoples": 5633,
      "65": 5634,
      "Ġreports": 5635,
      "Ġauthorities": 5636,
      "Ġradio": 5637,
      "Ġsolving": 5638,
      "ĠPaul": 5639,
      "ĠJapanese": 5640,
      "ils": 5641,
      "Ġboost": 5642,
      "Ġjudge": 5643,
      "rey": 5644,
      "Ġunl": 5645,
      "Ġdepth": 5646,
      "Ġbasketball": 5647,
      "ĠGreat": 5648,
      "Ġfinished": 5649,
      "ĠRoy": 5650,
      "Ġsimpl": 5651,
      "Ġprofessor": 5652,
      "Ġ2019": 5653,
      "Ġinstall": 5654,
      "Ġcharge": 5655,
      "fri": 5656,
      "van": 5657,
      "onavirus": 5658,
      "ville": 5659,
      "Ġfollows": 5660,
      "Ġextremely": 5661,
      "ĠÐłÐ¾ÑģÑģÐ¸Ð¹ÑģÐºÐ¾Ð¹": 5662,
      "City": 5663,
      "ÑīÐµÑģÑĤÐ²": 5664,
      "ĠResearch": 5665,
      "Ġpropos": 5666,
      "ĠGeorge": 5667,
      "95": 5668,
      "Ġrepresents": 5669,
      "Ð¾Ð±Ñĭ": 5670,
      "Ġliterature": 5671,
      "Ġroles": 5672,
      "Ġdomains": 5673,
      "ĠÑģÐ¾Ð·": 5674,
      "Ġpartn": 5675,
      "Ġsymptoms": 5676,
      "icity": 5677,
      "Ġequal": 5678,
      "Ġtumor": 5679,
      "orthern": 5680,
      "Ġresol": 5681,
      "berg": 5682,
      "rig": 5683,
      "Ġsettings": 5684,
      "Students": 5685,
      "ĠWin": 5686,
      "Ġvariables": 5687,
      "Ġconventional": 5688,
      "Ð°Ñģ": 5689,
      "Ġrequirements": 5690,
      "but": 5691,
      "Ġstraight": 5692,
      "Ġdecrease": 5693,
      "Ð¸ÑĤÐ°": 5694,
      "ĠOp": 5695,
      "roph": 5696,
      "Ġsubjects": 5697,
      "kay": 5698,
      "ĠÐ¼ÐµÐ½": 5699,
      "PS": 5700,
      "ĠBel": 5701,
      "Abstract": 5702,
      "ĠIS": 5703,
      "Ġinvolving": 5704,
      "rical": 5705,
      "Ġmistake": 5706,
      "Ġcontem": 5707,
      "Ġalign": 5708,
      "âĢľ": 5709,
      "Ġmonit": 5710,
      "ourage": 5711,
      "Ð½Ð¸ÐºÐ¾Ð²": 5712,
      "Ġcombined": 5713,
      "Ġvent": 5714,
      "Ġanimal": 5715,
      "designed": 5716,
      "Ġmechanisms": 5717,
      "Ġcomposed": 5718,
      "Ġbreaks": 5719,
      "Ġrevealed": 5720,
      "lit": 5721,
      "Ġappearance": 5722,
      "Ġreligious": 5723,
      "Ġarrest": 5724,
      "Ġdrawbacks": 5725,
      "ĠPlay": 5726,
      "Ġimplemented": 5727,
      "ĠAcademy": 5728,
      "Ġamb": 5729,
      "Ġcommercial": 5730,
      "Ġwit": 5731,
      "Ġlik": 5732,
      "Ġlimitations": 5733,
      "ĠInstitute": 5734,
      "ĠÐ¤ÐµÐ´ÐµÑĢÐ°ÑĨÐ¸Ð¸": 5735,
      "iant": 5736,
      "omial": 5737,
      "Ġchosen": 5738,
      "ĠServ": 5739,
      "No": 5740,
      "ÐµÐ½Ð°": 5741,
      "Ġseparate": 5742,
      "ned": 5743,
      "Ð»ÐµÐ´": 5744,
      "Ġevaluation": 5745,
      "Ġmillions": 5746,
      "rab": 5747,
      "ĠOut": 5748,
      "Ġplease": 5749,
      "iest": 5750,
      "ĠDespite": 5751,
      "ĠMil": 5752,
      "pling": 5753,
      "airs": 5754,
      "Ġwriter": 5755,
      "ĠSuper": 5756,
      "Ġguy": 5757,
      "Ġfigures": 5758,
      "Ġcategor": 5759,
      "Ġfeet": 5760,
      "Ġpersonality": 5761,
      "olds": 5762,
      "Ġjoint": 5763,
      "ĠAustralia": 5764,
      "Ġox": 5765,
      "Ġcomment": 5766,
      "Ġexchange": 5767,
      "Ġblue": 5768,
      "Ġcolle": 5769,
      "ĠÐ¿ÑĢÐ¾Ð³ÑĢÐ°Ð¼": 5770,
      "Un": 5771,
      "anna": 5772,
      "Ġinfections": 5773,
      "itals": 5774,
      "ÑĢÐ¾Ð´": 5775,
      "Ġjustice": 5776,
      "Ġtopics": 5777,
      "Ġcrime": 5778,
      "anks": 5779,
      "itivity": 5780,
      "nam": 5781,
      "Ġkept": 5782,
      "ĠMichael": 5783,
      "ãģ": 5784,
      "Ġdensity": 5785,
      "Ġath": 5786,
      "These": 5787,
      "Ġexcept": 5788,
      "Ġdirected": 5789,
      "writ": 5790,
      "ĠChic": 5791,
      "Ġalike": 5792,
      "Ġgraduating": 5793,
      "Ġcomponent": 5794,
      "OC": 5795,
      "vered": 5796,
      "arrow": 5797,
      "que": 5798,
      "ĠJer": 5799,
      "]**": 5800,
      "Ġbright": 5801,
      "ĠFlorida": 5802,
      "Ġdoub": 5803,
      "Ġspok": 5804,
      "Ġcombines": 5805,
      "Ġviral": 5806,
      "inant": 5807,
      "Ġengineering": 5808,
      "Ġsister": 5809,
      "Ġwood": 5810,
      "Ġteens": 5811,
      "Ð¾ÑĤÑĢÐµ": 5812,
      "ĠCarol": 5813,
      "aj": 5814,
      "ĠLeg": 5815,
      "inger": 5816,
      "ÑĥÑģ": 5817,
      "Ġ2001": 5818,
      "Ġimprovement": 5819,
      "see": 5820,
      "Ġheavy": 5821,
      "alle": 5822,
      "Ġresource": 5823,
      "Ġparticles": 5824,
      "alph": 5825,
      "23": 5826,
      "Ġonto": 5827,
      "Ġapplying": 5828,
      "ĠÐ¿ÑĢÐ¾ÑĤ": 5829,
      "ĠSur": 5830,
      "formation": 5831,
      "haps": 5832,
      "Ġfa": 5833,
      "Ġconcepts": 5834,
      "Ġsounds": 5835,
      "Ġepis": 5836,
      "ĠBill": 5837,
      "Ġprecision": 5838,
      "Ġschol": 5839,
      "ĠChar": 5840,
      "ÑĢÑĥÐ¿": 5841,
      "ÑĥÐ±Ð»Ð¸": 5842,
      "87": 5843,
      "Ġexpressed": 5844,
      "ĠDay": 5845,
      "rence": 5846,
      "Ġdemonstrated": 5847,
      "Ġassignment": 5848,
      "Ġapprox": 5849,
      "Ġtun": 5850,
      "Ġwake": 5851,
      "Ġcompetition": 5852,
      "aught": 5853,
      "Ġtim": 5854,
      "Ġfixed": 5855,
      "Ġactual": 5856,
      "Ġcommonly": 5857,
      "Ġwont": 5858,
      "itz": 5859,
      "sey": 5860,
      "Ġensuring": 5861,
      "Ar": 5862,
      "olic": 5863,
      "ĠLos": 5864,
      "Ġstability": 5865,
      "Ð¾Ð³Ð¸": 5866,
      "ÐµÐ¼Ñĥ": 5867,
      "Ġrestrict": 5868,
      "erving": 5869,
      "ĠÑĤÐ¾Ð³Ð¾": 5870,
      "ĠÐ»ÐµÑĤ": 5871,
      "Int": 5872,
      "orough": 5873,
      "Ġsinger": 5874,
      "clusion": 5875,
      "Ġhierarch": 5876,
      "ĠDis": 5877,
      "Ġsmooth": 5878,
      "Ġsexual": 5879,
      "Ġfilled": 5880,
      "www": 5881,
      "Ġindu": 5882,
      "Ġbelong": 5883,
      "AM": 5884,
      "oved": 5885,
      "Ð°Ð½Ð´": 5886,
      "Ġsolid": 5887,
      "Ġtheoretical": 5888,
      "iable": 5889,
      "ĠMonday": 5890,
      "ED": 5891,
      "ĠInter": 5892,
      "Ġpurposes": 5893,
      "Ġbirth": 5894,
      "Ġdro": 5895,
      "Ġstable": 5896,
      "istical": 5897,
      "phone": 5898,
      "uesday": 5899,
      "Ġgeometry": 5900,
      "According": 5901,
      "Ġlived": 5902,
      "Ġunit": 5903,
      "Ġdiscovered": 5904,
      "Ġbab": 5905,
      "Ð´Ð¶": 5906,
      "Ġrul": 5907,
      "Ġoriginally": 5908,
      "ÐºÐ¾Ð¹": 5909,
      "Ġtested": 5910,
      "ether": 5911,
      "ĠPost": 5912,
      "gar": 5913,
      "ÑĢÐ¸ÑĤÐ¾ÑĢ": 5914,
      "Ġdiversity": 5915,
      "Ġnarr": 5916,
      "celer": 5917,
      "ĠFranc": 5918,
      "vest": 5919,
      "Ġdaughter": 5920,
      "omy": 5921,
      "Ġcomputing": 5922,
      "ĠOh": 5923,
      "iated": 5924,
      "ĠCow": 5925,
      "Ġchoosing": 5926,
      "Ġincident": 5927,
      "90": 5928,
      "inite": 5929,
      "Ġmas": 5930,
      "Ġchurch": 5931,
      "Ġwaiting": 5932,
      "Ġobstac": 5933,
      "ION": 5934,
      "Ġdemonstrates": 5935,
      "alities": 5936,
      "gory": 5937,
      "hy": 5938,
      "Ġaccessible": 5939,
      "RF": 5940,
      "Ġnotice": 5941,
      "Ġ2002": 5942,
      "Ġlanguages": 5943,
      "Ġlic": 5944,
      "standing": 5945,
      "Ġmatrix": 5946,
      "Ġprivacy": 5947,
      "itar": 5948,
      "Ġbacter": 5949,
      "ĠOnce": 5950,
      "arked": 5951,
      "Ġ2003": 5952,
      "Ġfaces": 5953,
      "abil": 5954,
      "Ġuniversity": 5955,
      "Ġformat": 5956,
      "ĠShow": 5957,
      "FL": 5958,
      "xiety": 5959,
      "Ġiter": 5960,
      "semb": 5961,
      "Ġlaz": 5962,
      "Ġmetal": 5963,
      "Ġaudience": 5964,
      "amb": 5965,
      "Ġofficer": 5966,
      "ĠÐ±ÑĥÐ´ÐµÑĤ": 5967,
      "%.": 5968,
      "100": 5969,
      "othing": 5970,
      "Ġadult": 5971,
      "aks": 5972,
      "ĠDire": 5973,
      "Ġinsurance": 5974,
      "Ġengaging": 5975,
      "Ġintegr": 5976,
      "II": 5977,
      "duc": 5978,
      "Ġcore": 5979,
      "arant": 5980,
      "Ġnotes": 5981,
      "esteem": 5982,
      "Ġenables": 5983,
      "ĠLou": 5984,
      "Ġunfair": 5985,
      "Ġsection": 5986,
      "Ġchose": 5987,
      "Ġstrongly": 5988,
      "ĠSat": 5989,
      "ulating": 5990,
      "ĠRepresent": 5991,
      "Ġcircumst": 5992,
      "Ġovercome": 5993,
      "ultane": 5994,
      "Ġcarbon": 5995,
      "Ġproperly": 5996,
      "Ġcaptured": 5997,
      "ĠÑĤÐµÑĢÑĢÐ¸ÑĤÐ¾ÑĢ": 5998,
      "ĠAngeles": 5999,
      "Ġphoto": 6000,
      "cons": 6001,
      "Ġgather": 6002,
      "Ġletter": 6003,
      "ĠDemocrats": 6004,
      "Re": 6005,
      "ona": 6006,
      "Ġfarm": 6007,
      "ĠÐ¿Ð¾Ð²": 6008,
      "Ġprices": 6009,
      "Ġspeaking": 6010,
      "ĠRepublicans": 6011,
      "ĠBrown": 6012,
      "Ġdouble": 6013,
      "Ġrecorded": 6014,
      "forcement": 6015,
      "Ġmur": 6016,
      "Ġcollaboration": 6017,
      "Ġwaves": 6018,
      "Ġmanager": 6019,
      "Ġpull": 6020,
      "Ġappears": 6021,
      "Ġil": 6022,
      "Ġoperating": 6023,
      "Ġminor": 6024,
      "ĠLearning": 6025,
      "aker": 6026,
      "Ġequation": 6027,
      "Ġindicate": 6028,
      "Ġutilizes": 6029,
      "Ġice": 6030,
      "Ġdisapp": 6031,
      "Ġfile": 6032,
      "27": 6033,
      "TS": 6034,
      "ĠTuesday": 6035,
      "ishing": 6036,
      "Ġpossibility": 6037,
      "ĠCanadian": 6038,
      "ĠLaw": 6039,
      "uild": 6040,
      "ĠÑĥÐ¶Ðµ": 6041,
      "Ġcardiac": 6042,
      "ĠSee": 6043,
      "Ġsymbol": 6044,
      "Ġdrugs": 6045,
      "Ġau": 6046,
      "Ġast": 6047,
      "rier": 6048,
      "Ð±Ð°": 6049,
      "oo": 6050,
      "rs": 6051,
      "ĠCoun": 6052,
      "Ġparagraph": 6053,
      "Ġrepresentations": 6054,
      "oors": 6055,
      "ĠWhether": 6056,
      "iens": 6057,
      "Ġpow": 6058,
      "Ġloved": 6059,
      "with": 6060,
      "Ġstarts": 6061,
      "Ġargument": 6062,
      "Ġprompt": 6063,
      "ĠQue": 6064,
      "ÑģÑĤÑĢÐµ": 6065,
      "Ġfloor": 6066,
      "Ġantib": 6067,
      "ĠÐ¿Ð¾Ð»Ñĥ": 6068,
      "ÐµÐ¹ÑģÑĤÐ²": 6069,
      "fortun": 6070,
      "itud": 6071,
      "Ġaccidents": 6072,
      "related": 6073,
      "erencing": 6074,
      "acing": 6075,
      "Ġcalls": 6076,
      "rum": 6077,
      "Ġfunctional": 6078,
      "MS": 6079,
      "Ġseemed": 6080,
      "rors": 6081,
      "Ð±Ñĭ": 6082,
      "ificial": 6083,
      "ÑĪÐµÐ½Ð¸Ñı": 6084,
      "bb": 6085,
      "point": 6086,
      "unction": 6087,
      "iples": 6088,
      "Ġelim": 6089,
      "lamm": 6090,
      "People": 6091,
      "Ġcatch": 6092,
      "Ġalot": 6093,
      "Ġremained": 6094,
      "Ġbusy": 6095,
      "ij": 6096,
      "Ġdisp": 6097,
      "Ġautonom": 6098,
      "Ġmission": 6099,
      "ĠChicago": 6100,
      "Ġwis": 6101,
      "ĠRober": 6102,
      "Ġvaccine": 6103,
      "Ġdrink": 6104,
      "asts": 6105,
      "ĠJew": 6106,
      "Ġmainly": 6107,
      "Ġlifest": 6108,
      "ĠSmith": 6109,
      "Ġancient": 6110,
      "ĠMet": 6111,
      "Ġcompare": 6112,
      "Ġparties": 6113,
      "Ġsubsequ": 6114,
      "####": 6115,
      "Ġdisadvantages": 6116,
      "Ð²Ñĥ": 6117,
      "Ġera": 6118,
      "Ġpursuit": 6119,
      "udden": 6120,
      "Ġstruggling": 6121,
      "stein": 6122,
      "64": 6123,
      "igen": 6124,
      "Ġcant": 6125,
      "ession": 6126,
      "Ġanxiety": 6127,
      "ĠAfrica": 6128,
      "Ġ!": 6129,
      "ented": 6130,
      "Ġeating": 6131,
      "Ġabilities": 6132,
      "Ġplants": 6133,
      "Ġ2005": 6134,
      "Ġbott": 6135,
      "Ð·Ð½Ð°": 6136,
      "Ġdad": 6137,
      "ulner": 6138,
      "ĠÑĥÑĩ": 6139,
      "Ġexploration": 6140,
      "kra": 6141,
      "Ġic": 6142,
      "Ġmiles": 6143,
      "Ġilleg": 6144,
      "ĠMal": 6145,
      "ĠÐ¾Ð½Ð¸": 6146,
      "_{": 6147,
      "Ġshif": 6148,
      "Ġrequiring": 6149,
      "lusive": 6150,
      "Ġfewer": 6151,
      "ĠArmy": 6152,
      "ĠSam": 6153,
      "Ġbreath": 6154,
      "Ġpic": 6155,
      "ĠÐ¿Ñĥ": 6156,
      "ĠÑģÑĥ": 6157,
      "Ġencourages": 6158,
      "Ġstrengths": 6159,
      "Ġrevolution": 6160,
      "ĠÑĩÐµÐ»Ð¾Ð²ÐµÐº": 6161,
      "Ġmarried": 6162,
      "Ġgained": 6163,
      "ĠAward": 6164,
      "Ġputting": 6165,
      "Ġhyper": 6166,
      "yer": 6167,
      "?\"": 6168,
      "ND": 6169,
      "Since": 6170,
      "Ġmouth": 6171,
      "Ġ2004": 6172,
      "ynomial": 6173,
      "Ġidle": 6174,
      "ĠUnder": 6175,
      "ĠÑĩÐ¸Ñģ": 6176,
      "ĠFriday": 6177,
      "ĊĠĠ": 6178,
      "ĠÐ³Ð¾ÑģÑĥÐ´Ð°ÑĢÑģÑĤÐ²ÐµÐ½": 6179,
      "Ð³Ñĥ": 6180,
      "Ġimprovements": 6181,
      "ographs": 6182,
      "Ġli": 6183,
      "Ġincreases": 6184,
      "ĠIslam": 6185,
      "ĠEarly": 6186,
      "Ġpool": 6187,
      "Ġgraduated": 6188,
      "Ġdiscussion": 6189,
      "alax": 6190,
      "Ġcovered": 6191,
      "Ġvaccination": 6192,
      "Ġfluid": 6193,
      "Ġanymore": 6194,
      "Ġcolors": 6195,
      "Ġvector": 6196,
      "inity": 6197,
      "Ġadvent": 6198,
      "Ġinfluenced": 6199,
      "}}": 6200,
      "Ġrot": 6201,
      "Ġimmun": 6202,
      "HO": 6203,
      "Ġsales": 6204,
      "Ġoffered": 6205,
      "men": 6206,
      "unte": 6207,
      "ĠÐ¿ÑĢÐ¾Ð´": 6208,
      "ĠÐ¼ÐµÑģÑĤ": 6209,
      "lig": 6210,
      "osure": 6211,
      "Ġgreatly": 6212,
      "Ġpossibly": 6213,
      "Ġimmune": 6214,
      "38": 6215,
      "Ġwear": 6216,
      "Ġbrief": 6217,
      "ounce": 6218,
      "Ġreturned": 6219,
      "Ġprinciple": 6220,
      "29": 6221,
      "Ġmask": 6222,
      "Ġsimultane": 6223,
      "Ġfourth": 6224,
      "Ġachieves": 6225,
      "friend": 6226,
      "iter": 6227,
      "Ð²ÐµÐ´": 6228,
      "ĊĠĠĠĠĠĠĠĠĠĠĠĠĠĠĠĠĠĠĠĠĠĠĠĠĠĠĠĠĠĠĠĠĠĠĠĠĠĠĠ": 6229,
      "Ġflexibility": 6230,
      "Ġfell": 6231,
      "sts": 6232,
      "ĠÐ±ÑĭÐ»Ð°": 6233,
      "ĠAssociation": 6234,
      "Ġsample": 6235,
      "icing": 6236,
      "Ġmenu": 6237,
      "Ġsurvey": 6238,
      "Ġcop": 6239,
      "ĠWithout": 6240,
      "ta": 6241,
      "Ġtransl": 6242,
      "Many": 6243,
      "omed": 6244,
      "ĠÑģÐ»": 6245,
      "arial": 6246,
      "Ġdepartment": 6247,
      "67": 6248,
      "Ġdedication": 6249,
      "aded": 6250,
      "ÑĥÐ¶": 6251,
      "ĠPri": 6252,
      "Ġhttp": 6253,
      "herent": 6254,
      "ĠConst": 6255,
      "state": 6256,
      "Ġwinner": 6257,
      "Ġfeels": 6258,
      "Ġcomplic": 6259,
      "Ð¶Ð´Ñĥ": 6260,
      "ospitals": 6261,
      "Ġreduction": 6262,
      "can": 6263,
      "alysis": 6264,
      "Ġsea": 6265,
      "Ġsched": 6266,
      "Ġdipl": 6267,
      "Ġsmile": 6268,
      "Ġloan": 6269,
      "Ġdynamic": 6270,
      "Su": 6271,
      "More": 6272,
      "ĠSar": 6273,
      "acking": 6274,
      "Ġdriven": 6275,
      "Ġsites": 6276,
      "Ġnoted": 6277,
      "ĠÑĤÑĢÐµ": 6278,
      "Ġacceler": 6279,
      "Ġsmog": 6280,
      "ropy": 6281,
      "Ġlies": 6282,
      "ĠMiss": 6283,
      "Ġworse": 6284,
      "ĠÐ±Ñĥ": 6285,
      "ĠÑĥÑĤ": 6286,
      "ovid": 6287,
      "fit": 6288,
      "Ġcircumstances": 6289,
      "Sp": 6290,
      "ĠCup": 6291,
      "rastructure": 6292,
      "Ġarm": 6293,
      "Ġfemale": 6294,
      "Ġproof": 6295,
      "Ġvulner": 6296,
      "ĠBen": 6297,
      "ervative": 6298,
      "ĠPort": 6299,
      "Ġarts": 6300,
      "sol": 6301,
      "iration": 6302,
      "Ġbrings": 6303,
      "Ġdistracted": 6304,
      "ĠWestern": 6305,
      "ĠHospital": 6306,
      "ĠÐ¼ÐµÑĢ": 6307,
      "Ġexistence": 6308,
      "Ġagreement": 6309,
      "ya": 6310,
      "Ġhighlighting": 6311,
      "Ġgreenhouse": 6312,
      "Ġmaximum": 6313,
      "cean": 6314,
      "ĠWed": 6315,
      "ĠDet": 6316,
      "Ð¿Ñĥ": 6317,
      "Ġstandards": 6318,
      "All": 6319,
      "Ġtaxes": 6320,
      "while": 6321,
      "otal": 6322,
      "Ġsides": 6323,
      "alian": 6324,
      "cious": 6325,
      "ÑĭÐ¼": 6326,
      "ĠÐŁÐ¾": 6327,
      "Ġoccas": 6328,
      "Ġofficers": 6329,
      "Ġpet": 6330,
      "ÑıÐ²Ð¸": 6331,
      "dr": 6332,
      "iately": 6333,
      "Ð»ÐµÐ¼": 6334,
      "Ġlimits": 6335,
      "ĠMo": 6336,
      "Ġformal": 6337,
      "Ġlargely": 6338,
      "Ġtheories": 6339,
      "ÑĮÑİ": 6340,
      "Ġclassify": 6341,
      "Ġexplo": 6342,
      "Ġinstruct": 6343,
      "Ġobserv": 6344,
      "Ġing": 6345,
      "Ġdeeper": 6346,
      "Ġunsupervised": 6347,
      "Ġpercentage": 6348,
      "Ġplatforms": 6349,
      "Ġbored": 6350,
      "Ġexpans": 6351,
      "ĠChurchill": 6352,
      "37": 6353,
      "enth": 6354,
      "Ġgod": 6355,
      "ĠNav": 6356,
      "Ġregist": 6357,
      "Ġconsideration": 6358,
      "Ġcrowd": 6359,
      "Ġsigned": 6360,
      "spec": 6361,
      "ÑģÐºÐ¾Ð¼": 6362,
      "Ġpolar": 6363,
      "!!!": 6364,
      "iment": 6365,
      "Ġsty": 6366,
      "Ġride": 6367,
      "Despite": 6368,
      "unched": 6369,
      "Ġdense": 6370,
      "agoing": 6371,
      "Ġdestroy": 6372,
      "Ġsenior": 6373,
      "ĠWeek": 6374,
      "Ġ1960": 6375,
      "Ġlosing": 6376,
      "Ġcompos": 6377,
      "Ð³Ð¾Ð´": 6378,
      "lies": 6379,
      "Ġ1970": 6380,
      "Ġvolume": 6381,
      "Ġrelatively": 6382,
      "Ġexternal": 6383,
      "apes": 6384,
      "Ġreaders": 6385,
      "ÐĿÐ°": 6386,
      "Now": 6387,
      "Ġgenerations": 6388,
      "Ġestimate": 6389,
      "well": 6390,
      "ĠCars": 6391,
      "Ġguess": 6392,
      "Ġglass": 6393,
      "itative": 6394,
      "ĠÐ¼Ð¾Ð³": 6395,
      "Ġpassing": 6396,
      "Ġinspired": 6397,
      "Ġwall": 6398,
      "ĠSun": 6399,
      "Ġnewsp": 6400,
      "Ġbigger": 6401,
      "OS": 6402,
      "Ġ1980": 6403,
      "ĠHall": 6404,
      "Ġextraction": 6405,
      "ĠGovernor": 6406,
      "ĠÐ´Ð¾Ð»Ð¶": 6407,
      "coh": 6408,
      "pled": 6409,
      "ĠÐ¾Ð½Ð°": 6410,
      "ĠRoyal": 6411,
      "Ġfif": 6412,
      "Ġgrew": 6413,
      "Ġdiet": 6414,
      "life": 6415,
      "Ġod": 6416,
      "Ġtom": 6417,
      "iform": 6418,
      "ĠGroup": 6419,
      "Ġedges": 6420,
      "Ġfailing": 6421,
      "HE": 6422,
      "Ġcaught": 6423,
      "imp": 6424,
      "ĠEv": 6425,
      "Ġplaced": 6426,
      "efore": 6427,
      "Ġfeedback": 6428,
      "ĠMRI": 6429,
      "Ġpolynomial": 6430,
      "Ġseat": 6431,
      "ĠRoman": 6432,
      "ĠUkra": 6433,
      "Le": 6434,
      "Ġworldwide": 6435,
      "ju": 6436,
      "ĠSecret": 6437,
      "Ġcontemporary": 6438,
      "osc": 6439,
      "Ġfuzz": 6440,
      "Ġscenarios": 6441,
      "Ð½ÐµÐ¹": 6442,
      "uration": 6443,
      "Ġfulf": 6444,
      "ĠIr": 6445,
      "ĠMuse": 6446,
      "NAME": 6447,
      "Ġtissue": 6448,
      "ĠMor": 6449,
      "Ġ90": 6450,
      "making": 6451,
      "uel": 6452,
      "ĠÐ¼Ð¾": 6453,
      "ÑĨÑĭ": 6454,
      "ĠÐ±Ð¾Ð»ÐµÐµ": 6455,
      "Ġreward": 6456,
      "ĠAlex": 6457,
      "ĠÐ´Ð°Ð½": 6458,
      "Ġobvious": 6459,
      "Ġproductive": 6460,
      "Ġreaction": 6461,
      "Ġmast": 6462,
      "Ġconferencing": 6463,
      "ĠMusic": 6464,
      "che": 6465,
      "ĠDec": 6466,
      "ĠÐ¾Ñĩ": 6467,
      "Ð¿Ð¾Ð»": 6468,
      "alse": 6469,
      "Ġpushing": 6470,
      "Ġhappening": 6471,
      "ÑİÑĤÑģÑı": 6472,
      "ĠSund": 6473,
      "Ġacting": 6474,
      "Ġcreation": 6475,
      "Ġchances": 6476,
      "ĠEss": 6477,
      "Ġcategory": 6478,
      "Ġrecip": 6479,
      "Ġgraphs": 6480,
      "Americ": 6481,
      "han": 6482,
      "ĠCT": 6483,
      "ĠMac": 6484,
      "ĠVirgin": 6485,
      "Ġlazy": 6486,
      "}$": 6487,
      "Ġcraft": 6488,
      "Ġwhom": 6489,
      "ĠCarolina": 6490,
      "44": 6491,
      "inf": 6492,
      "ications": 6493,
      "ÑİÐ´Ð¶": 6494,
      "ĠChe": 6495,
      "Ġfighting": 6496,
      "Ġselected": 6497,
      "LE": 6498,
      "ixt": 6499,
      "raw": 6500,
      "ÑıÐ±ÑĢÑı": 6501,
      "ĠAustralian": 6502,
      "Ġpal": 6503,
      "ĠNor": 6504,
      "Ġgradient": 6505,
      "Ġwinter": 6506,
      "89": 6507,
      "gu": 6508,
      "ĠMad": 6509,
      "Ġparticle": 6510,
      "Ġminimum": 6511,
      "Ġphenomenon": 6512,
      "ras": 6513,
      "Ð¿ÑĢÐ¸": 6514,
      "Ġreconst": 6515,
      "Ġserving": 6516,
      "Ġguitar": 6517,
      "Ġoperation": 6518,
      "Ġjoy": 6519,
      "apers": 6520,
      "Ġcultures": 6521,
      "Ġoccup": 6522,
      "Ġprinciples": 6523,
      "ĠApple": 6524,
      "Ġprison": 6525,
      "Ġdegrees": 6526,
      "Ġbroader": 6527,
      "Having": 6528,
      "BI": 6529,
      "erent": 6530,
      "ĠUp": 6531,
      "Ġspring": 6532,
      "Ġdefine": 6533,
      "ĠDef": 6534,
      "Ġpositions": 6535,
      "ĠÐµÑīÐµ": 6536,
      "Ġapart": 6537,
      "mates": 6538,
      "Ġstorm": 6539,
      "Ð»ÑģÑı": 6540,
      "Ġsitting": 6541,
      "36": 6542,
      "arp": 6543,
      "ÑĤÐµÐ»ÑĮÑģÑĤÐ²Ð°": 6544,
      "Ġemployed": 6545,
      "Ġtack": 6546,
      "icians": 6547,
      "Ġsharing": 6548,
      "Ġsymmet": 6549,
      "Ġshad": 6550,
      "ĠBre": 6551,
      "Ġquiet": 6552,
      "ounds": 6553,
      "Ġcharacterized": 6554,
      "Ġsuperior": 6555,
      "Ġdebt": 6556,
      "how": 6557,
      "ilit": 6558,
      "Ġsky": 6559,
      "Ġinnovation": 6560,
      "lease": 6561,
      "ÐµÐ»ÑĮ": 6562,
      "Ð¼Ð¾Ð¶": 6563,
      "ĠUltimately": 6564,
      "Ġimpacts": 6565,
      "ĠAtl": 6566,
      "Ġillness": 6567,
      "Ġec": 6568,
      "Ġdirections": 6569,
      "Ġprotection": 6570,
      "ĠPrinc": 6571,
      "Ġanswers": 6572,
      "ĠÑģÐ¾Ð·Ð´Ð°": 6573,
      "li": 6574,
      "Ð¨": 6575,
      "Ġfeatured": 6576,
      "Ġinfrastructure": 6577,
      "lines": 6578,
      "Ġsegmenting": 6579,
      "ĠÑıÐ²Ð»Ñı": 6580,
      "Ġlinked": 6581,
      "Ġliqu": 6582,
      "Ð´Ð¾Ð²": 6583,
      "Ġprepar": 6584,
      "Ġcomputation": 6585,
      "Ġengaged": 6586,
      "ĠIsland": 6587,
      "Ġprimarily": 6588,
      "PA": 6589,
      "Ġderived": 6590,
      "ĠFacebook": 6591,
      "Ġisland": 6592,
      "ĠSup": 6593,
      "Ð²ÑĪ": 6594,
      "Ġdesigns": 6595,
      "26": 6596,
      "iratory": 6597,
      "ĠKnow": 6598,
      "Ġhyd": 6599,
      "Ġgene": 6600,
      "Ġcontribution": 6601,
      "ressed": 6602,
      "ulture": 6603,
      "Ġfacial": 6604,
      "ĠMedical": 6605,
      "gn": 6606,
      "ĠÐ¥": 6607,
      "Ġsupported": 6608,
      "Ġcorpor": 6609,
      "Ġtreated": 6610,
      "ocratic": 6611,
      "Ġsupposed": 6612,
      "Ġrecords": 6613,
      "ĠWorking": 6614,
      "Don": 6615,
      "Ġdefense": 6616,
      "Ġexpectations": 6617,
      "umn": 6618,
      "Ġyield": 6619,
      "Ġsole": 6620,
      "Ġruns": 6621,
      "Ġsquare": 6622,
      "eria": 6623,
      "Ġcorrel": 6624,
      "Ġdealing": 6625,
      "ampionship": 6626,
      "Ġcriminal": 6627,
      "ĠSal": 6628,
      "venue": 6629,
      "Ġclubs": 6630,
      "Ġfirm": 6631,
      "Ġrealized": 6632,
      "Ġmentioned": 6633,
      "Ġchair": 6634,
      "ĠSocial": 6635,
      "Ġguarant": 6636,
      "Ġdetermination": 6637,
      "Ġbike": 6638,
      "uty": 6639,
      "ĠBest": 6640,
      "Ġcritics": 6641,
      "Ġelectronic": 6642,
      "Ġprominent": 6643,
      "ĠGreen": 6644,
      "ĠThose": 6645,
      "Ġsumm": 6646,
      "Ħĸ": 6647,
      "ĠAI": 6648,
      "fortunately": 6649,
      "Ġfuzzy": 6650,
      "ĠÐ¿Ð¾Ð»Ð¸": 6651,
      "Ġcollected": 6652,
      "Ġsustainable": 6653,
      "ĠJefferson": 6654,
      "Furthermore": 6655,
      "Ġproteins": 6656,
      "ĠTwo": 6657,
      "Ġnumer": 6658,
      "ĠÑģÐ¾Ð¾Ð±Ñī": 6659,
      "Ġchannel": 6660,
      "Ġrespectively": 6661,
      "Ġanalyzing": 6662,
      "ĠLouis": 6663,
      "ĠWind": 6664,
      "Ġadaptation": 6665,
      "Ġregardless": 6666,
      "Ð·Ð¸Ð´": 6667,
      "Ġenabling": 6668,
      "oric": 6669,
      "ĠTur": 6670,
      "Ġequip": 6671,
      "Ġopening": 6672,
      "Ġimmediately": 6673,
      "Ġregional": 6674,
      "ĠDeep": 6675,
      "Ġsubstant": 6676,
      "Ġcontour": 6677,
      "Ġmanaged": 6678,
      "Ġattribut": 6679,
      "ĠÐµÑģÐ»Ð¸": 6680,
      "Ð¸ÑĤÑģÑı": 6681,
      "Ġsatisf": 6682,
      "Ġcareful": 6683,
      "Ġpopulations": 6684,
      "Ġbuildings": 6685,
      "Ġthin": 6686,
      "no": 6687,
      "espread": 6688,
      "Ġnames": 6689,
      "Ġnonlinear": 6690,
      "pan": 6691,
      "Ġmarked": 6692,
      "ĠMuseum": 6693,
      "school": 6694,
      "Ġexciting": 6695,
      "Ġclaims": 6696,
      "Ġcash": 6697,
      "azine": 6698,
      "Ġstatistical": 6699,
      "Ġslightly": 6700,
      "Ġperiods": 6701,
      "Ġmixed": 6702,
      "ala": 6703,
      "Ġactor": 6704,
      "Ġenvironments": 6705,
      "rick": 6706,
      "nesday": 6707,
      "ĠIran": 6708,
      "Ġinfluences": 6709,
      "Ġcycle": 6710,
      "Ġannotations": 6711,
      "anta": 6712,
      "ĠÐ¶Ð¸Ð·": 6713,
      "Ġclassic": 6714,
      "pass": 6715,
      "Ġended": 6716,
      "Ġweekend": 6717,
      "Ġ2022": 6718,
      "Also": 6719,
      "amm": 6720,
      "33": 6721,
      "nel": 6722,
      "orney": 6723,
      "ĠMat": 6724,
      "ighter": 6725,
      "Ġabsor": 6726,
      "cript": 6727,
      "Ġmand": 6728,
      "orders": 6729,
      "Ġheavily": 6730,
      "Ġmad": 6731,
      "ĠSpanish": 6732,
      "Ġemerged": 6733,
      "Ð»ÐµÐºÑģ": 6734,
      "Ġcomments": 6735,
      "Ġmodeling": 6736,
      "ĠÑĩÑĤ": 6737,
      "ðŁ": 6738,
      "Ġleaves": 6739,
      "ÐµÐ½ÑĤÐ°": 6740,
      "Ġinstit": 6741,
      "orial": 6742,
      "ĠÐ¿Ð¾Ð·": 6743,
      "Ð¾Ð½Ðµ": 6744,
      "ĠÐ±ÑĭÑĤÑĮ": 6745,
      "Ġpolitician": 6746,
      "Ġwish": 6747,
      "Ġvolunte": 6748,
      "ĠFil": 6749,
      "ĠKe": 6750,
      "Ġstanding": 6751,
      "Ġhidden": 6752,
      "Ġcategories": 6753,
      "Se": 6754,
      "hand": 6755,
      "Ġlie": 6756,
      "ĠÐ³Ð¾Ð²Ð¾ÑĢ": 6757,
      "Ġcook": 6758,
      "Ġcoverage": 6759,
      "ĠÑįÑĤÐ¾Ð³Ð¾": 6760,
      "ĠÐºÐ¾ÑĤÐ¾ÑĢÑĭÐ¹": 6761,
      "ĠChristian": 6762,
      "Ġnobody": 6763,
      "Ġdescribes": 6764,
      "Ġengagement": 6765,
      "Ġmedicine": 6766,
      "ĠMexico": 6767,
      "iot": 6768,
      "ĠÎ": 6769,
      "Ġpace": 6770,
      "ĠMass": 6771,
      "Ġ31": 6772,
      "Ð¾ÑĤÐ²ÐµÑĤ": 6773,
      "onal": 6774,
      "ĠData": 6775,
      "Ġorganized": 6776,
      "Ġhaven": 6777,
      "estival": 6778,
      "Ġworst": 6779,
      "Ġdepression": 6780,
      "Ġemotion": 6781,
      "Ġsudden": 6782,
      "ÑĤÑĥÑĢ": 6783,
      "Ġexists": 6784,
      "Ġidentifying": 6785,
      "ĠPrime": 6786,
      "Ġgender": 6787,
      "Ġsupporting": 6788,
      "lyn": 6789,
      "Ġnotable": 6790,
      "Ġunless": 6791,
      "ĠâĦĸ": 6792,
      "AD": 6793,
      "Ġunex": 6794,
      "Ġcalling": 6795,
      "ĠÐ³Ð¾ÑĢÐ¾Ð´Ð°": 6796,
      "Ġthrow": 6797,
      "Ġnan": 6798,
      "ursday": 6799,
      "ĠÑģÐ¸ÑģÑĤ": 6800,
      "86": 6801,
      "ii": 6802,
      "ÑĨÐ¸Ð¹": 6803,
      "Ġreporting": 6804,
      "Read": 6805,
      "Ġheight": 6806,
      "Ġjump": 6807,
      "Ġmuse": 6808,
      "Ġwidespread": 6809,
      "CO": 6810,
      "ifications": 6811,
      "Ġsociet": 6812,
      "ĠGeorg": 6813,
      "ĠÐ¼ÐµÐ½Ñı": 6814,
      "Ġped": 6815,
      "Ġeast": 6816,
      "Ġupdates": 6817,
      "Ġapproximately": 6818,
      "Ġpref": 6819,
      "Ġconference": 6820,
      "Ġrein": 6821,
      "umber": 6822,
      "Ġunits": 6823,
      "aked": 6824,
      "Ġclearly": 6825,
      "Ġbeliefs": 6826,
      "^{": 6827,
      "Ð°ÑĤ": 6828,
      "olf": 6829,
      "aware": 6830,
      "abeled": 6831,
      "ĠRef": 6832,
      "ĠÑĩÐµÐ¼": 6833,
      "Ġguidelines": 6834,
      "Ġslowly": 6835,
      "cont": 6836,
      "ada": 6837,
      "ÐºÐ¾Ð»": 6838,
      "ĠProf": 6839,
      "Ġtrees": 6840,
      "hi": 6841,
      "Ġsurf": 6842,
      "Ġmatters": 6843,
      "ĠScott": 6844,
      "cohol": 6845,
      "ĠÐ¾Ð±ÐµÑģÐ¿": 6846,
      "ĠÐłÐ¤": 6847,
      "Ġbasically": 6848,
      "Ġfamiliar": 6849,
      "Ġholding": 6850,
      "olit": 6851,
      "Ġmathematics": 6852,
      "Ġfunds": 6853,
      "Ġratio": 6854,
      "Ġathlet": 6855,
      "Ð¾ÑĢÑı": 6856,
      "Ġlifestyle": 6857,
      "Cl": 6858,
      "Ġtens": 6859,
      "Ġhar": 6860,
      "ĠCovid": 6861,
      "ĠPublic": 6862,
      "CM": 6863,
      "Ġvital": 6864,
      "ĠÐºÐ¾ÑĤÐ¾ÑĢÑĭÐµ": 6865,
      "Ġmonitoring": 6866,
      "Ġaid": 6867,
      "ĠCap": 6868,
      "ĠYes": 6869,
      "Ġillegal": 6870,
      "Ð¾Ð¿ÑĢÐ¾Ñģ": 6871,
      "Here": 6872,
      "ĠMary": 6873,
      "Ġsomebody": 6874,
      "ĠÑĢÐµÐ°Ð»Ð¸": 6875,
      ")$": 6876,
      "irt": 6877,
      "Ġhang": 6878,
      "omic": 6879,
      "olute": 6880,
      "Ġthinks": 6881,
      "ÑĪÑĮ": 6882,
      "ĠĊĠĊĠĊ": 6883,
      "tion": 6884,
      "Ġpuzz": 6885,
      "arge": 6886,
      "ĠTor": 6887,
      "ĠPe": 6888,
      "ÑĤÐµÑĢÐ¸": 6889,
      "Ġconsult": 6890,
      "ÑĩÐµÑģÐºÐ¾Ð³Ð¾": 6891,
      "Ġsuccessfully": 6892,
      "then": 6893,
      "insert": 6894,
      "gery": 6895,
      "Ġcommitted": 6896,
      "Ġdollars": 6897,
      "iat": 6898,
      "ĠDel": 6899,
      "Ġcompact": 6900,
      "ĠÐ¼Ð½Ðµ": 6901,
      "ĠÑįÑĤÐ¸": 6902,
      "Ġamounts": 6903,
      "Ġestimated": 6904,
      "Ġnavigate": 6905,
      "Ġmastered": 6906,
      "using": 6907,
      "agine": 6908,
      "Ġmanual": 6909,
      "84": 6910,
      "bits": 6911,
      "Ġtrip": 6912,
      "Ġexcellent": 6913,
      "ĠCouncil": 6914,
      "Ġrenew": 6915,
      "ĠIll": 6916,
      "ado": 6917,
      "ĠFin": 6918,
      "Ð½ÐµÐµ": 6919,
      "ĠCompany": 6920,
      "ĠWednesday": 6921,
      "lor": 6922,
      "Ġalt": 6923,
      "Ġpaths": 6924,
      "Ġobservation": 6925,
      "Ġreaching": 6926,
      "RE": 6927,
      "ĠMicro": 6928,
      "Ġstudio": 6929,
      "Ġacts": 6930,
      "Ġminds": 6931,
      "Ġdanger": 6932,
      "Ġstores": 6933,
      "Ġ1998": 6934,
      "ĠĠĠĠĠĠĠĠĠĠĠĠĠĠĠĠĠĠĠĠĠĠĠĠĠĠĠĠĠĠĠĠĠĠĠĠĠĠĠĠĠĠĠĠĠĠĠĠĠĠĠĠĠĠĠĠĠĠĠĠĠĠĠĠĠĠĠĠĠĠĠĠĠĠĠĠĠĠĠĠĠĠĠĠĠĠĠĠĠĠĠĠĠĠĠĠĠĠĠĠĠĠĠĠĠĠĠĠĠĠĠĠĠĠĠĠĠĠĠĠĠĠĠĠĠĠĠĠĠĠĠĠĠĠĠĠĠĠĠĠĠĠĠĠĠĠĠĠĠĠĠĠĠĠĠĠĠĠĠĠĠĠĠĠĠĠĠĠĠĠĠĠĠĠĠĠĠĠĠĠĠĠĠĠĠĠĠĠĠĠĠĠĠĠĠĠĠĠĠĠĠĠĠĠĠĠĠĠĠĠĠĠĠĠĠĠĠĠĠĠĠĠĠĠĠĠĠĠĠĠĠĠĠĠĠĠĠĠĠĠĠĠĠĠĠĠĠĠĠĠĠĠĠĠĠĠ": 6935,
      "ĉĉ": 6936,
      "ÑģÑĤÐ¾ÑĢ": 6937,
      "ophy": 6938,
      "Ġdedicated": 6939,
      "Secondly": 6940,
      "ĠThursday": 6941,
      "Ġindex": 6942,
      "Ġinternal": 6943,
      "Ġbuying": 6944,
      "Ġacknow": 6945,
      "Ġrestaurant": 6946,
      "Pro": 6947,
      "Ġnarrow": 6948,
      "ĠGold": 6949,
      "Ġextens": 6950,
      "Ġcareers": 6951,
      "Ġcooper": 6952,
      "ÑĨÐ¸Ñİ": 6953,
      "Ġresponses": 6954,
      "ĠÐ¿ÑĢÐ¾ÑĤÐ¸Ð²": 6955,
      ");": 6956,
      "Ġhate": 6957,
      "Ġsuitable": 6958,
      "Ġeverybody": 6959,
      "Ġextend": 6960,
      "Ġstunning": 6961,
      "Ġpossibilities": 6962,
      "Ġmuseum": 6963,
      "Ð¾ÐºÑĥ": 6964,
      "ĠÑģÐ¾Ð¾ÑĤÐ²ÐµÑĤ": 6965,
      "ĠJour": 6966,
      "Ġextending": 6967,
      "Ġalgebraic": 6968,
      "ĠCentral": 6969,
      "ĠSupreme": 6970,
      "Ġtex": 6971,
      "Ð§": 6972,
      "Ġru": 6973,
      "Ġremaining": 6974,
      "Ġtransmission": 6975,
      "Ġleverages": 6976,
      "Ġbold": 6977,
      "ĠSoci": 6978,
      "ĠStar": 6979,
      "Ġanywhere": 6980,
      "Ġestate": 6981,
      "Ġvirtual": 6982,
      "ĠÐ½Ð°ÑģÐµ": 6983,
      "Ġcoe": 6984,
      "Ġunlike": 6985,
      "Ġarticles": 6986,
      "34": 6987,
      "Ġcourage": 6988,
      "Ġbodies": 6989,
      "Ġthick": 6990,
      "Ġideal": 6991,
      "ographer": 6992,
      "elled": 6993,
      "Ġstands": 6994,
      "ĠÑĤÐµÑħ": 6995,
      "Ġtemp": 6996,
      "Ġwitness": 6997,
      "Ġcloud": 6998,
      "Ð´ÐµÐ»": 6999,
      "Ġobstacles": 7000,
      "riage": 7001,
      "azz": 7002,
      "lder": 7003,
      "Ġstopped": 7004,
      "Ġweapons": 7005,
      "uing": 7006,
      "Ġvast": 7007,
      "Ġwanna": 7008,
      "Ġprotocol": 7009,
      "Ġkinds": 7010,
      "Ġtherm": 7011,
      "Ġholds": 7012,
      "umbent": 7013,
      "ĠÑģÐºÐ°Ð·": 7014,
      "ÐµÐ½Ð½ÑĭÑħ": 7015,
      "Ġmit": 7016,
      "Ġraise": 7017,
      "Ġconstraints": 7018,
      "aud": 7019,
      "ĠSl": 7020,
      "Ð¾ÑĤÐ¾Ð²": 7021,
      "ĠÐ¾ÑĩÐµÐ½ÑĮ": 7022,
      "bal": 7023,
      "Ġeditor": 7024,
      "ronic": 7025,
      "Ġinitially": 7026,
      "ĠWilliam": 7027,
      "Ġbegins": 7028,
      "rants": 7029,
      "onia": 7030,
      "ĠArab": 7031,
      "Ġexplan": 7032,
      "Ġdemonstrating": 7033,
      "Ġstrain": 7034,
      "ĠMount": 7035,
      "ÑĢÐ°Ð±Ð¾ÑĤ": 7036,
      "Ġutilizing": 7037,
      "Introduction": 7038,
      "itors": 7039,
      "ÑĩÐµÑģÐºÐ¸Ñħ": 7040,
      "ĠÑģÐ²Ñı": 7041,
      "From": 7042,
      "Ġhus": 7043,
      "Ġhearing": 7044,
      "achers": 7045,
      "Ġviruses": 7046,
      "Ġmale": 7047,
      "Ġdial": 7048,
      "ĠTom": 7049,
      "Ġsyn": 7050,
      "Ġsupply": 7051,
      "Ġdefinite": 7052,
      "oted": 7053,
      "Ġmassive": 7054,
      "that": 7055,
      "Ġconfused": 7056,
      "Ġconcerned": 7057,
      "burg": 7058,
      "Ġfusion": 7059,
      "Ġaliens": 7060,
      "inding": 7061,
      "Ġstrive": 7062,
      "Ġfalse": 7063,
      "roid": 7064,
      "Ġfrust": 7065,
      "Ġparks": 7066,
      "Ġcapabilities": 7067,
      "ĠTwitter": 7068,
      "Ġadversarial": 7069,
      "Ġpun": 7070,
      "ĠDiv": 7071,
      "ĠRem": 7072,
      "Ġachievement": 7073,
      "Ġdiscussed": 7074,
      "ĠScience": 7075,
      "Ġ2021": 7076,
      "isation": 7077,
      "Ġbag": 7078,
      "ctu": 7079,
      "Ġrid": 7080,
      "ĠÑĢÐµÐ·": 7081,
      "boys": 7082,
      "Ġdistributed": 7083,
      "ÑĦÐ¾ÑĢÐ¼Ð°": 7084,
      "itudes": 7085,
      "Ġsimultaneously": 7086,
      "Ġstuck": 7087,
      "ÑĢÐµÐ½": 7088,
      "aldo": 7089,
      "anted": 7090,
      "ested": 7091,
      "Ġscal": 7092,
      "Ġparameter": 7093,
      "ĠSanders": 7094,
      "ĠBack": 7095,
      "Ġ187": 7096,
      "Ġlegisl": 7097,
      "Ġequivalent": 7098,
      "ĠMult": 7099,
      "Ġshares": 7100,
      "Ð±Ð¸": 7101,
      "ĠÐ´Ð¸": 7102,
      "ĠÐ±ÑİÐ´Ð¶": 7103,
      "Ġexecutive": 7104,
      "Ġwonderful": 7105,
      "ÐµÑĢÐ³": 7106,
      "Ġdifficulty": 7107,
      "Ġlaunched": 7108,
      "Ġtaste": 7109,
      "ĠSing": 7110,
      "Ġphotos": 7111,
      "Ġstim": 7112,
      "Ġintensity": 7113,
      "ĠÐºÑĢÐ°": 7114,
      "ÑĤÐµÐ»Ñı": 7115,
      "Ã³": 7116,
      "Ġalle": 7117,
      "Ġinjury": 7118,
      "39": 7119,
      "lets": 7120,
      "ÑĢÑĥÐ´": 7121,
      "Ġsuperv": 7122,
      "Ġadvances": 7123,
      "ĠMuslim": 7124,
      "Ġinfluenza": 7125,
      "Ġshock": 7126,
      "ÑĮÑı": 7127,
      "Ġpromoting": 7128,
      "ĠTime": 7129,
      "isting": 7130,
      "ÑĤÐ¸Ð¹": 7131,
      "Ġ70": 7132,
      "Ġflexible": 7133,
      "Do": 7134,
      "Date": 7135,
      "Ġpropag": 7136,
      "Ġpainting": 7137,
      "Ġvs": 7138,
      "ÐºÐ°Ð·Ð°": 7139,
      "Ġbreaking": 7140,
      "Ġerrors": 7141,
      "ĠMaps": 7142,
      "ĠWhich": 7143,
      "PC": 7144,
      "anes": 7145,
      "Ġliber": 7146,
      "cel": 7147,
      "Ġpredictions": 7148,
      "OL": 7149,
      "Ġ80": 7150,
      "Ġsongs": 7151,
      "Ġhistoric": 7152,
      "Ġearned": 7153,
      "Ġcongest": 7154,
      "ĠCD": 7155,
      "ÑĪÐµÐ½Ð¸Ðµ": 7156,
      "Ġalien": 7157,
      "ĠFound": 7158,
      "Ð°Ð»Ð¾": 7159,
      "Ġcolon": 7160,
      "ĠÑĩÑĤÐ¾Ð±Ñĭ": 7161,
      "Ġsac": 7162,
      "Ġquarter": 7163,
      "aths": 7164,
      "Ġcoast": 7165,
      "Ġartificial": 7166,
      "Ġpaint": 7167,
      "Ġmasks": 7168,
      "soft": 7169,
      "Ġremote": 7170,
      "Ġrobot": 7171,
      "ĠMaybe": 7172,
      "ĠJose": 7173,
      "ÑĢÐµÑģ": 7174,
      "ĠArts": 7175,
      "Ġprogramming": 7176,
      "Ġdangers": 7177,
      "________": 7178,
      "Ġentertainment": 7179,
      "ĠRobert": 7180,
      "Ġoptical": 7181,
      "Ġupdated": 7182,
      "GB": 7183,
      "yal": 7184,
      "ĠSub": 7185,
      "Ġunknown": 7186,
      "ĠItaly": 7187,
      "Ġanticip": 7188,
      "tes": 7189,
      "Ġwel": 7190,
      "ÑģÑĤÐµ": 7191,
      "Ð¾Ð½Ð¾Ð¼Ð¸": 7192,
      "Ġtexting": 7193,
      "ĠÑģÐµÐ¼": 7194,
      "text": 7195,
      "ĠRev": 7196,
      "ĠPhot": 7197,
      "Ġautomatically": 7198,
      "Go": 7199,
      "Ġborder": 7200,
      "Ġtow": 7201,
      "ĠÐ¿Ð¾ÐºÐ°": 7202,
      "ĠJr": 7203,
      "ĠÐ½Ð°Ñģ": 7204,
      "Ġdistraction": 7205,
      "Ġflat": 7206,
      "Ġcreates": 7207,
      "Ġdivided": 7208,
      "Ã¼": 7209,
      "Ġmal": 7210,
      "estic": 7211,
      "Ġrespiratory": 7212,
      "Ġpurchase": 7213,
      "athy": 7214,
      "Ġcompleting": 7215,
      "Ġexcited": 7216,
      "Ġreplace": 7217,
      "Res": 7218,
      "Ġspoke": 7219,
      "Ġsplit": 7220,
      "Ġinference": 7221,
      "Ġadmit": 7222,
      "Ġnotion": 7223,
      "aren": 7224,
      "Ġblend": 7225,
      "Ġtherapy": 7226,
      "ĠVirginia": 7227,
      "32": 7228,
      "Ġadvert": 7229,
      "ĠYear": 7230,
      "Ġsusp": 7231,
      "ĠSunday": 7232,
      "She": 7233,
      "Ġlas": 7234,
      "ĠRel": 7235,
      "ĠÐ¼Ð½": 7236,
      "Ġfacilit": 7237,
      "ucky": 7238,
      "ĠGet": 7239,
      "Ġlaunch": 7240,
      "Ġgirls": 7241,
      "Ġmolecular": 7242,
      "Ġcomparison": 7243,
      "88": 7244,
      "ĠEduc": 7245,
      "Ġsimulation": 7246,
      "Ġmobile": 7247,
      "Ġshut": 7248,
      "reshold": 7249,
      "col": 7250,
      "road": 7251,
      "Ġdesire": 7252,
      "ĠÐ¸ÑģÐ¿Ð¾Ð»ÑĮÐ·": 7253,
      "Ġreform": 7254,
      "Ġtracking": 7255,
      "Ġtransp": 7256,
      "ĠÐµÐµ": 7257,
      "Ġincredibly": 7258,
      "Ġokay": 7259,
      "ĠGr": 7260,
      "Ġprecise": 7261,
      "Ġcorner": 7262,
      "ĠÐ²Ð°": 7263,
      "Ġperforming": 7264,
      "Ġnecessarily": 7265,
      "Ð´Ð¾": 7266,
      "Ġscales": 7267,
      "Ġpersons": 7268,
      "ĠSecretary": 7269,
      "ship": 7270,
      "real": 7271,
      "Ġhabit": 7272,
      "Ġneuro": 7273,
      "Ð¡Ð¡": 7274,
      "ÐµÑĢÐµÐ·": 7275,
      "ĠÐ¼Ð¾Ð¶ÐµÑĤ": 7276,
      "amily": 7277,
      "udd": 7278,
      "ĠItalian": 7279,
      "Ġmechanics": 7280,
      "ĠÐ¼ÐµÐ¶Ð´Ñĥ": 7281,
      "ean": 7282,
      "Ġhospitals": 7283,
      "ĠMiddle": 7284,
      "Ġgoods": 7285,
      "Ġdesired": 7286,
      "Ġframe": 7287,
      "ĠJohnson": 7288,
      "inter": 7289,
      "Ġswim": 7290,
      "Ġscr": 7291,
      "Ġpoly": 7292,
      "Ġcertainly": 7293,
      "Ġreceiving": 7294,
      "Ġequipment": 7295,
      "ilarly": 7296,
      "ĠÐºÐ¾Ð³Ð´Ð°": 7297,
      "Ġexplained": 7298,
      "mental": 7299,
      "ĠBoth": 7300,
      "shire": 7301,
      "RS": 7302,
      "ĠHuman": 7303,
      "Ġacid": 7304,
      "Ġexplicit": 7305,
      "Ġbroken": 7306,
      "Ġfoods": 7307,
      "Ġcontrolled": 7308,
      "Ġstages": 7309,
      "Ġdeeply": 7310,
      "Ġ1984": 7311,
      "ÑģÐºÐ°Ñı": 7312,
      "ĠÑģÐ¸ÑģÑĤÐµÐ¼": 7313,
      "Ð¸Ð¼Ð¸": 7314,
      "arris": 7315,
      "Ġfrequently": 7316,
      "Every": 7317,
      "Ġprint": 7318,
      "Ġsignals": 7319,
      "BA": 7320,
      "rich": 7321,
      "eli": 7322,
      "Ġsigns": 7323,
      "Ġinflamm": 7324,
      "Ġhierarchical": 7325,
      "Ġhur": 7326,
      "Ġtwice": 7327,
      "Ġabsence": 7328,
      "Ġinequ": 7329,
      "Ġleague": 7330,
      "rem": 7331,
      "Ġannual": 7332,
      "Ġrent": 7333,
      "Ġlandform": 7334,
      "Ġveget": 7335,
      "Ġawarded": 7336,
      "ĠÐ¿ÐµÑĢÐ²": 7337,
      "Ð½Ð¸Ð¼": 7338,
      "Ġcounsel": 7339,
      "Ġfrequency": 7340,
      "Ġtight": 7341,
      "ĠPenn": 7342,
      "ĠNY": 7343,
      "Ġshooting": 7344,
      "asy": 7345,
      "ĠÑģÐ¾Ð¾ÑĤÐ²ÐµÑĤÑģÑĤÐ²": 7346,
      "Ġcogn": 7347,
      "ounder": 7348,
      "Ġseasons": 7349,
      "ĠThus": 7350,
      "Ġoverview": 7351,
      "Ġfailures": 7352,
      "ĠÐµÑģÑĤÑĮ": 7353,
      "Ġresponsibilities": 7354,
      "Ġgenetic": 7355,
      "Ġstatistics": 7356,
      "reed": 7357,
      "Ġmor": 7358,
      "osite": 7359,
      "Ġagency": 7360,
      "Ġscholars": 7361,
      "Ġexplores": 7362,
      "Ġmovies": 7363,
      "Ġmes": 7364,
      "Ġprofound": 7365,
      "box": 7366,
      "Ġabsolute": 7367,
      "Ð½Ð¸ÑģÑĤÑĢÐ°": 7368,
      "Ġcorresponding": 7369,
      "Ġappointed": 7370,
      "idency": 7371,
      "Ġrural": 7372,
      "Ġcoff": 7373,
      "Ġrepresented": 7374,
      "Ġexpressions": 7375,
      "Ġscheme": 7376,
      "laim": 7377,
      "ĠLake": 7378,
      "Ġcopy": 7379,
      "organ": 7380,
      "ĠÐ¿Ð¾ÑĤ": 7381,
      "ÑħÐ°": 7382,
      "Ġguys": 7383,
      "Ġmusical": 7384,
      "Ġnewspaper": 7385,
      "itt": 7386,
      "itis": 7387,
      "utation": 7388,
      "Ġcomprom": 7389,
      "Ġrobustness": 7390,
      "Ġannotation": 7391,
      "Ġrapidly": 7392,
      "asure": 7393,
      "Ġlux": 7394,
      "ban": 7395,
      "Ġperformances": 7396,
      "Ġreference": 7397,
      "ĠFrank": 7398,
      "Ġoccurred": 7399,
      "PU": 7400,
      "ĠÑĢÐ°ÑģÐ¿": 7401,
      "racy": 7402,
      "Ġmarkets": 7403,
      "Ġaddressing": 7404,
      "rons": 7405,
      "Ġbath": 7406,
      "alk": 7407,
      "lymp": 7408,
      "Ġtrad": 7409,
      "Ġowner": 7410,
      "Ð´ÐµÐ»Ð°": 7411,
      "Although": 7412,
      "Ġtough": 7413,
      "ĠKorea": 7414,
      "Ġinstitutions": 7415,
      "onym": 7416,
      "Ġinhib": 7417,
      "ĠTer": 7418,
      "Ġentirely": 7419,
      "Ġelev": 7420,
      "ĠInf": 7421,
      "ologist": 7422,
      "ĠVict": 7423,
      "Ġobjective": 7424,
      "ĠSeagoing": 7425,
      "RA": 7426,
      "Ġsparked": 7427,
      "Ð¾Ð»Ð¾Ð´": 7428,
      "Ġexposure": 7429,
      "ÐŃ": 7430,
      "ĠSol": 7431,
      "ĠMont": 7432,
      "ĠFore": 7433,
      "Ġcarried": 7434,
      "Ġcrash": 7435,
      "ĠÑĦÐ¾ÑĢ": 7436,
      "faction": 7437,
      "chest": 7438,
      "eut": 7439,
      "Ġ185": 7440,
      "ĠArch": 7441,
      "Ġfle": 7442,
      "illance": 7443,
      "ÑģÐºÐ¸Ðµ": 7444,
      "Ġcoord": 7445,
      "Ġprediction": 7446,
      "Ġscenes": 7447,
      "Ġlibrary": 7448,
      "oming": 7449,
      "ÐµÑģ": 7450,
      "Ġchief": 7451,
      "Ġpublicly": 7452,
      "Ġunexpected": 7453,
      "gence": 7454,
      "auss": 7455,
      "Ġenable": 7456,
      "istry": 7457,
      "Ð¼ÐµÑĤ": 7458,
      "ĠWho": 7459,
      "Ġcongestion": 7460,
      "min": 7461,
      "ÑĢÐ¾Ð¿": 7462,
      "ĠCare": 7463,
      "Ġrough": 7464,
      "Ġtele": 7465,
      "ogue": 7466,
      "Ġcommand": 7467,
      "Ġkeeps": 7468,
      "ĠSem": 7469,
      "ÑĥÐ»ÑĮÑĤÐ°": 7470,
      "Ġfoster": 7471,
      "ĠWil": 7472,
      "Ġpartial": 7473,
      "Ġrecovery": 7474,
      "Ġexplains": 7475,
      "ĠExpl": 7476,
      "Ġprofessionals": 7477,
      "allel": 7478,
      "Ġalcohol": 7479,
      "ĠInternet": 7480,
      "rible": 7481,
      "ĠÐºÐ¾ÑĢ": 7482,
      "Ġcharges": 7483,
      "ĠÐ¾ÑĤÐ½Ð¾": 7484,
      "Ġaccepted": 7485,
      "Ġbeat": 7486,
      "Ġcombat": 7487,
      "Ġpriorit": 7488,
      "Ġminimal": 7489,
      "Ġestimation": 7490,
      "OT": 7491,
      "quality": 7492,
      "Ġresistance": 7493,
      "abric": 7494,
      "Ð´ÐµÐ¹": 7495,
      "ĠSociety": 7496,
      "DA": 7497,
      "Ġafra": 7498,
      "eds": 7499,
      "Ġrefers": 7500,
      "ĠÐ¾Ð±ÑīÐµ": 7501,
      "Ġdecreased": 7502,
      "ulpt": 7503,
      "Ġintended": 7504,
      "avors": 7505,
      "ÑĤÐµÐ¹": 7506,
      "Ġparticipating": 7507,
      "Ġfunding": 7508,
      "itchen": 7509,
      "Ġcomplicated": 7510,
      "Ġliquid": 7511,
      "Ġgalax": 7512,
      "Ġupcoming": 7513,
      "Ġmotor": 7514,
      "Ġafraid": 7515,
      "Ġbeac": 7516,
      "rag": 7517,
      "gypt": 7518,
      "Ġconcentration": 7519,
      "Ġprocedure": 7520,
      "iral": 7521,
      "Ġ35": 7522,
      "ĠClass": 7523,
      "Ġarchitectures": 7524,
      "ĠCommit": 7525,
      "Ġmolecules": 7526,
      "Most": 7527,
      "Ã¶": 7528,
      "isy": 7529,
      "ĠHen": 7530,
      "ĠBet": 7531,
      "ÑĩÐµÑģÐºÐ¾Ð¹": 7532,
      "Ġvarying": 7533,
      "Ġgravity": 7534,
      "rary": 7535,
      "ĠToday": 7536,
      "icks": 7537,
      "uted": 7538,
      "Ġtech": 7539,
      "Ġpartner": 7540,
      "Ġrain": 7541,
      "Ġrefine": 7542,
      "Ġautomatic": 7543,
      "ĠÐ²ÑģÐµÑħ": 7544,
      "ĠÑĢÐ¾ÑģÑģÐ¸": 7545,
      "Ġdistractions": 7546,
      "Ġreligion": 7547,
      "??": 7548,
      "EC": 7549,
      "ĠCE": 7550,
      "ĠPC": 7551,
      "ĠOlymp": 7552,
      "Ġ2023": 7553,
      "Ġshopping": 7554,
      "Ġmortality": 7555,
      "kin": 7556,
      "Ð°Ð»ÑģÑı": 7557,
      "ĠMag": 7558,
      "Ð±Ð¾ÑĢ": 7559,
      "ĠÑģÐ¾ÑĨÐ¸Ð°Ð»ÑĮ": 7560,
      "--------": 7561,
      "Ġsnow": 7562,
      "unting": 7563,
      "Ġhusband": 7564,
      "Ġcontaining": 7565,
      "Why": 7566,
      "urally": 7567,
      "ariju": 7568,
      "See": 7569,
      "ĠÐ¨": 7570,
      "astern": 7571,
      "ĠRob": 7572,
      "Ġmanip": 7573,
      "Ð¾Ð³Ð»Ð°": 7574,
      "rency": 7575,
      "Ġswitch": 7576,
      "ĠEmp": 7577,
      "Ġsurvive": 7578,
      "Gener": 7579,
      "rome": 7580,
      "ĠÐ¿Ð°ÑĢ": 7581,
      "Ġbrown": 7582,
      "aluable": 7583,
      "ĠÑĢÐ°Ð¹Ð¾Ð½Ð°": 7584,
      "Ġfish": 7585,
      "Ġperce": 7586,
      "Ġsimilarity": 7587,
      "Ġassigned": 7588,
      "arijuana": 7589,
      "28": 7590,
      "icious": 7591,
      "ading": 7592,
      "ocking": 7593,
      "ultural": 7594,
      "Ġintric": 7595,
      "Ġsav": 7596,
      "what": 7597,
      "ĠÐ¿ÑĢÐ°Ð²Ð¸": 7598,
      "Ġproposal": 7599,
      "Ġbaby": 7600,
      "Ġnumerical": 7601,
      "west": 7602,
      "Ġtick": 7603,
      "ĠBig": 7604,
      "ĠÐ²Ð·": 7605,
      "Ð¶Ð´Ð°Ð½": 7606,
      "ĠGrand": 7607,
      "Ġgar": 7608,
      "ĠÐ½Ð°ÑħÐ¾Ð´": 7609,
      "Ġdiscovery": 7610,
      "oston": 7611,
      "Ð±Ñı": 7612,
      "obal": 7613,
      "Ġretire": 7614,
      "ĠColumb": 7615,
      "Ġtall": 7616,
      "imal": 7617,
      "Ġcomposition": 7618,
      "ariant": 7619,
      "Ġfocuses": 7620,
      "Ġsafer": 7621,
      "Ġaffects": 7622,
      "Ġintroduction": 7623,
      "Ġinspire": 7624,
      "Ġwindow": 7625,
      "ĠÐ¾ÑģÐ½Ð¾Ð²": 7626,
      "ĠÑĢÐ°Ð·Ð²Ð¸ÑĤÐ¸Ñı": 7627,
      "Ġselling": 7628,
      "Ð°Ñı": 7629,
      "ady": 7630,
      "Ġcellular": 7631,
      "Ġ1995": 7632,
      "bsp": 7633,
      "Ġfol": 7634,
      "Ġstead": 7635,
      "ĠÐ´Ñĥ": 7636,
      "Ġunderst": 7637,
      "Ġrelation": 7638,
      "ĠÑĢÐµÐ³Ð¸": 7639,
      "Ġadopted": 7640,
      "Ġimmediate": 7641,
      "Ġmanufacture": 7642,
      "ÑģÑĤÐ°Ð²": 7643,
      "isco": 7644,
      "Ġlogic": 7645,
      "Ġshapes": 7646,
      "ican": 7647,
      "ÐµÐ»Ð¸": 7648,
      "uban": 7649,
      "Ġmemories": 7650,
      "conf": 7651,
      "Well": 7652,
      "Ġnodes": 7653,
      "Ġoccurs": 7654,
      "ĠPolice": 7655,
      "rid": 7656,
      "ĠðŁ": 7657,
      "Ġstor": 7658,
      "cal": 7659,
      "Ġles": 7660,
      "ĠÐ½Ð°ÑĪ": 7661,
      "Ġlasting": 7662,
      "Ġannotated": 7663,
      "500": 7664,
      "itage": 7665,
      "ĠTre": 7666,
      "Ġking": 7667,
      "brid": 7668,
      "Ġreferred": 7669,
      "ĠService": 7670,
      "Ġbottom": 7671,
      "Ġdefinitely": 7672,
      "CC": 7673,
      "Ġstood": 7674,
      "Ġsurgery": 7675,
      "ĠÐ¿ÑĢÐ¾ÐµÐº": 7676,
      "47": 7677,
      "BS": 7678,
      "you": 7679,
      "Ġfellow": 7680,
      "ensus": 7681,
      "Ġproven": 7682,
      "Ġevening": 7683,
      "Ġargued": 7684,
      "ĠÐ¸Ð½ÑĦÐ¾ÑĢÐ¼Ð°": 7685,
      "ĠKingdom": 7686,
      "Ð´ÐµÑĢÐ¶": 7687,
      "Ġepisode": 7688,
      "icon": 7689,
      "ĠDan": 7690,
      "ĠÐ²ÐµÑĢ": 7691,
      "Ġactress": 7692,
      "Ġseconds": 7693,
      "Ġmeasured": 7694,
      "Ġdeliver": 7695,
      "which": 7696,
      "FA": 7697,
      "Ġgard": 7698,
      "Ð¾Ð¼Ñĥ": 7699,
      "Ġapproxim": 7700,
      "Ġretired": 7701,
      "Ġwatched": 7702,
      "Ð»Ð°ÑģÑĮ": 7703,
      "Ġzero": 7704,
      "Ġcharged": 7705,
      "ĠÐ°Ð´": 7706,
      "Ð²Ð°ÑĤÑĮ": 7707,
      "Ġpasseng": 7708,
      "ĠProt": 7709,
      "owl": 7710,
      "Ġperhaps": 7711,
      "Ġrail": 7712,
      "ÑĤÐµÐ»ÑĮÐ½Ð¾": 7713,
      "Ġopposite": 7714,
      "Ġwalked": 7715,
      "Ġcontinuous": 7716,
      "mm": 7717,
      "Ġforg": 7718,
      "Ġembed": 7719,
      "ĠGeorgia": 7720,
      "Ð¿ÑĢÐµ": 7721,
      "Ġconservative": 7722,
      "Ġadvis": 7723,
      "Ġlocations": 7724,
      "Ġmachines": 7725,
      "night": 7726,
      "%,": 7727,
      "edia": 7728,
      "ĠExt": 7729,
      "Ġawareness": 7730,
      "Ġsoph": 7731,
      "Ġdance": 7732,
      "win": 7733,
      "ĠBrook": 7734,
      "Ġdivision": 7735,
      "ÑıÑĤÐµÐ»ÑĮ": 7736,
      "ormal": 7737,
      "rows": 7738,
      "Ġinvestors": 7739,
      "Ġcombining": 7740,
      "ÑģÑĤÑĢÐ°": 7741,
      "orry": 7742,
      "Ġcoffee": 7743,
      "Ġinh": 7744,
      "Ġchain": 7745,
      "Ġexposed": 7746,
      "Ġmindset": 7747,
      "Ġhttps": 7748,
      "ĠÐ²Ð¾Ð¿ÑĢÐ¾Ñģ": 7749,
      "ĠEveryone": 7750,
      "Ġfaith": 7751,
      "ygen": 7752,
      "Ġfasc": 7753,
      "ÑĤÐµÐ»ÐµÐ¹": 7754,
      "Ġassistance": 7755,
      "Ġboring": 7756,
      "Ġplane": 7757,
      "Ð¾Ð¿ÑĢÐ¸Ñı": 7758,
      "Ġsuggested": 7759,
      "Ġoppon": 7760,
      "Trump": 7761,
      "IA": 7762,
      "oles": 7763,
      "ocation": 7764,
      "ĠÐ²Ð¾Ð¹": 7765,
      "Ð¾ÑĢÑĤ": 7766,
      "ĠCommunity": 7767,
      "Ġcriticism": 7768,
      "ĠÑģÐº": 7769,
      "ĠÐ´ÐµÐ¹ÑģÑĤÐ²": 7770,
      "Ġtechnical": 7771,
      "Ġcert": 7772,
      "ĠMer": 7773,
      "Ġgovernor": 7774,
      "Ġturns": 7775,
      "Ġsequences": 7776,
      "rd": 7777,
      "ÃŃ": 7778,
      "rect": 7779,
      "Ġthemes": 7780,
      "Ġwest": 7781,
      "ĠCru": 7782,
      "gl": 7783,
      "ÑģÑĤÑĢÐ¾": 7784,
      "ĠÑģÑĤÑĢÐ¾": 7785,
      "Ġstrict": 7786,
      "urday": 7787,
      "Ġplus": 7788,
      "Ġdeciding": 7789,
      "Ġpip": 7790,
      "Ġmel": 7791,
      "omes": 7792,
      "Ġwheel": 7793,
      "activity": 7794,
      "Ġtor": 7795,
      "ĠBush": 7796,
      "Ġelectricity": 7797,
      "sm": 7798,
      "Ġegg": 7799,
      "ĠST": 7800,
      "ĠLim": 7801,
      "ÑĪÐµÐ½": 7802,
      "ployment": 7803,
      "Ġcouncil": 7804,
      "Ġbatter": 7805,
      "Ġnine": 7806,
      "Ġrig": 7807,
      "Ġdecline": 7808,
      "Ġremove": 7809,
      "iary": 7810,
      "vania": 7811,
      "ĠÐ±ÑĥÐ´Ñĥ": 7812,
      "Ġorient": 7813,
      "Ġdistingu": 7814,
      "Ġturning": 7815,
      "Ġdestination": 7816,
      "ING": 7817,
      "Ultimately": 7818,
      "Ġseats": 7819,
      "Ġarguments": 7820,
      "ependent": 7821,
      "ĠWaldo": 7822,
      "Ġalbums": 7823,
      "ĠCommission": 7824,
      "ĠÐºÐ¾Ð¼Ð¿": 7825,
      "ĠÑĤÐµÑĢÑĢÐ¸ÑĤÐ¾ÑĢÐ¸Ð¸": 7826,
      "omedical": 7827,
      "Not": 7828,
      "Ġcha": 7829,
      "Ð½Ð¸Ñİ": 7830,
      "Ġrepeated": 7831,
      "bles": 7832,
      "ĠÐ¿Ð°": 7833,
      "anger": 7834,
      "ĠÑĩÐµÑĢÐµÐ·": 7835,
      "Ġappreciate": 7836,
      "Ġunlabeled": 7837,
      "bur": 7838,
      "Ġdin": 7839,
      "arks": 7840,
      "Ġsufficient": 7841,
      "Ġbringing": 7842,
      "Ġacadem": 7843,
      "ĠSpecifically": 7844,
      "Ġingred": 7845,
      "Ġgeometric": 7846,
      "Ġincorporating": 7847,
      "ĠÐ»ÑİÐ±": 7848,
      "ĠIrish": 7849,
      "ĠÃ": 7850,
      "Ġperse": 7851,
      "ÐºÐ°Ñħ": 7852,
      "Ġreflects": 7853,
      "isp": 7854,
      "ĠTaking": 7855,
      "Ġautomated": 7856,
      "ĠJustice": 7857,
      "ka": 7858,
      "Ġsucc": 7859,
      "Ġoutbre": 7860,
      "Ġdifferential": 7861,
      "Ġhundreds": 7862,
      "indu": 7863,
      "Ġoutlook": 7864,
      "Ġuncle": 7865,
      "Ġinterse": 7866,
      "Ġzone": 7867,
      "Ġvacation": 7868,
      "ĠSarah": 7869,
      "hent": 7870,
      "Ġneur": 7871,
      "Ġsomewhere": 7872,
      "Ġscared": 7873,
      "Ġvariable": 7874,
      "66": 7875,
      "Ġscans": 7876,
      "Ġinvaluable": 7877,
      "Ġsensitive": 7878,
      "zil": 7879,
      "Ġvert": 7880,
      "Ġnor": 7881,
      "Ġradiation": 7882,
      "Ġmicrosc": 7883,
      "eah": 7884,
      "Ġgap": 7885,
      "river": 7886,
      "Ġstressful": 7887,
      "!\"": 7888,
      "Ð´Ð°Ð»": 7889,
      "ÑĩÐµÑĤ": 7890,
      "Ġdependent": 7891,
      "pet": 7892,
      "hered": 7893,
      "Ġthorough": 7894,
      "ĠBas": 7895,
      "Ð¾Ð»Ð¾": 7896,
      "Ġstret": 7897,
      "Ġmob": 7898,
      "osh": 7899,
      "ĠÐ¸Ñİ": 7900,
      "Ġdownload": 7901,
      "Ġsurveillance": 7902,
      "Ġprospect": 7903,
      "pat": 7904,
      "Ġshorter": 7905,
      "ĠRad": 7906,
      "ogene": 7907,
      "Ġexamine": 7908,
      "rog": 7909,
      "Ġagent": 7910,
      "ricts": 7911,
      "Ġelective": 7912,
      "Ġefficacy": 7913,
      "Ġannounce": 7914,
      "ÑģÑĤÐ°Ð²Ð»Ñı": 7915,
      "Ġindependence": 7916,
      "Ġboss": 7917,
      "stream": 7918,
      "Ġfacts": 7919,
      "Ġparallel": 7920,
      "Ġnearby": 7921,
      "ĠÑģÐ¿Ðµ": 7922,
      "Work": 7923,
      "rely": 7924,
      "ĠPet": 7925,
      "ocracy": 7926,
      "plo": 7927,
      "icted": 7928,
      "Ġepid": 7929,
      "American": 7930,
      "Ġcorrelation": 7931,
      "wa": 7932,
      "Ġmig": 7933,
      "Ġremark": 7934,
      "ĠYoung": 7935,
      "Ġfoundation": 7936,
      "Ġensures": 7937,
      "Ġrecognized": 7938,
      "Ġcollective": 7939,
      "ÑĤÑĢÐ°": 7940,
      "Ġasym": 7941,
      "Ġarray": 7942,
      "Ġmarketing": 7943,
      "Ġcas": 7944,
      "Ġrecept": 7945,
      "umer": 7946,
      "ĠElection": 7947,
      "ĠÑģÑĥÐ±": 7948,
      "ounded": 7949,
      "Ġterrit": 7950,
      "Ġmargin": 7951,
      "Ġroads": 7952,
      "ĠRichard": 7953,
      "Lastly": 7954,
      "greg": 7955,
      "ĠBoston": 7956,
      "ĠÐ³ÑĢÐ°Ð¶Ð´Ð°Ð½": 7957,
      "Ġwearing": 7958,
      "Ġbranch": 7959,
      "Ġphotographs": 7960,
      "Ġinvolvement": 7961,
      "sembly": 7962,
      "Ġmood": 7963,
      "utch": 7964,
      "Ġdecade": 7965,
      "ĠLee": 7966,
      "Ġparticipants": 7967,
      "ĠÐĿÐ¾": 7968,
      "uses": 7969,
      "ÑģÑĭ": 7970,
      "ĠJud": 7971,
      "Ġpregn": 7972,
      "Ġlistening": 7973,
      "ĠCommun": 7974,
      "Ġfalling": 7975,
      "Ġordered": 7976,
      "specific": 7977,
      "bi": 7978,
      "Ġcaf": 7979,
      "amin": 7980,
      "essor": 7981,
      "Ð´Ñĭ": 7982,
      "Ġagents": 7983,
      "Ġlisted": 7984,
      "ĠÑĢÑĥÐ±": 7985,
      "ĠGreek": 7986,
      "UL": 7987,
      "weight": 7988,
      "Ġbridge": 7989,
      "Â«": 7990,
      "Ġdrawn": 7991,
      "Ð¿ÑĢÐ°Ð²Ð»": 7992,
      "ĠOpen": 7993,
      "ĠÐ¼ÐµÑĢÐ¾Ð¿ÑĢÐ¸Ñı": 7994,
      "ette": 7995,
      "ĠId": 7996,
      "ĠMel": 7997,
      "anged": 7998,
      "Ġshel": 7999,
      "Ġunders": 8000,
      "Ġpraised": 8001,
      "Ġ{": 8002,
      "ĠForm": 8003,
      "ansas": 8004,
      "aching": 8005,
      "Ġpersonally": 8006,
      "Ġaccounts": 8007,
      "Ġhall": 8008,
      "ga": 8009,
      "Ġdry": 8010,
      "ĠEgypt": 8011,
      "Ð½Ð¸ÐºÐ¸": 8012,
      "Ġpoet": 8013,
      "Ġvoter": 8014,
      "Ġreplaced": 8015,
      "ĠCommittee": 8016,
      "Ġdual": 8017,
      "raq": 8018,
      "Ð½Ð¾ÑģÑĤ": 8019,
      "ĠEssay": 8020,
      "arts": 8021,
      "ĠNext": 8022,
      "process": 8023,
      "syl": 8024,
      "ĠÑĥÑģÐ»Ð¾Ð²": 8025,
      "ĠDirector": 8026,
      "ML": 8027,
      "Ġtro": 8028,
      "agues": 8029,
      "Ġsculpt": 8030,
      "Ġmoder": 8031,
      "Ð»Ð¸Ñĩ": 8032,
      "Ġtotally": 8033,
      "ĠSyria": 8034,
      "ãĤ": 8035,
      "inem": 8036,
      "Ġprime": 8037,
      "roduct": 8038,
      "Ġiconic": 8039,
      "ĠFoot": 8040,
      "ifferent": 8041,
      "Ġresulted": 8042,
      "Ġgovernments": 8043,
      "ĠÐ²Ð¾Ð·Ð¼Ð¾Ð¶": 8044,
      "Ġexpansion": 8045,
      "ĠRalph": 8046,
      "Ġproductivity": 8047,
      "Ġemployee": 8048,
      "Ġhousing": 8049,
      "Ġdevelopments": 8050,
      "Ġexperiencing": 8051,
      "Ġmechanical": 8052,
      "Ġconsistency": 8053,
      "Ġclaimed": 8054,
      "Ġthreshold": 8055,
      "irty": 8056,
      "ĠAction": 8057,
      "ÑĥÑīÐµÑģÑĤÐ²": 8058,
      "ypes": 8059,
      "lessly": 8060,
      "ĠIre": 8061,
      "ĠAv": 8062,
      "acial": 8063,
      "Ġriver": 8064,
      "Ġproduces": 8065,
      "ÑĪÐµÐ³Ð¾": 8066,
      "Ġtransformation": 8067,
      "ĠÐ¿ÑĢÐ¾Ð²ÐµÐ´": 8068,
      "31": 8069,
      "she": 8070,
      "Ġfabric": 8071,
      "Ġkern": 8072,
      "Ġhappiness": 8073,
      "tic": 8074,
      "yan": 8075,
      "Ġbust": 8076,
      "Ġscientist": 8077,
      "ĠÐºÐ¾Ð¼Ð¿Ð°": 8078,
      "Ġbanks": 8079,
      "ĠHome": 8080,
      "ĠPress": 8081,
      "Ġagric": 8082,
      "Ġmoves": 8083,
      "!!!!": 8084,
      "Ġmeasurements": 8085,
      "ĠÑģÐ»ÑĥÑĩÐ°": 8086,
      "Ġrank": 8087,
      "Ġtherapeut": 8088,
      ";&": 8089,
      "ÑĢÐµÐ¼ÐµÐ½": 8090,
      "aussian": 8091,
      "sylvania": 8092,
      "Tra": 8093,
      "Ġcul": 8094,
      "Ġren": 8095,
      "anges": 8096,
      "ÑīÐ¸Ñħ": 8097,
      "Ġstring": 8098,
      "Ð¾Ð±ÑħÐ¾Ð´": 8099,
      "Ġmuscles": 8100,
      "Sc": 8101,
      "ĠAcc": 8102,
      "ĠÐ¿Ð¾Ñĩ": 8103,
      "Ġstructural": 8104,
      "ÑģÑĤÐ¾Ñĩ": 8105,
      "Ġsummary": 8106,
      "OP": 8107,
      "Ġinfinite": 8108,
      "Ġmeasurement": 8109,
      "boy": 8110,
      "Ġwalls": 8111,
      "ĠHel": 8112,
      "Ġlegacy": 8113,
      "Rec": 8114,
      "ĠMem": 8115,
      "ĠBus": 8116,
      "abeth": 8117,
      "Ġvariations": 8118,
      "Ġ500": 8119,
      "Ġsurprise": 8120,
      "%)": 8121,
      "ĠCamp": 8122,
      "ĠGood": 8123,
      "ĠÐ´ÐµÐ½ÑĮ": 8124,
      "ĠChall": 8125,
      "Ġoutdoor": 8126,
      "48": 8127,
      "Because": 8128,
      "under": 8129,
      "Ġsand": 8130,
      "ĠDNA": 8131,
      "ÑģÑĤÐ¾Ð²": 8132,
      "Ð¼Ð¸Ð½Ð¸ÑģÑĤÑĢÐ°": 8133,
      "Ġdifficulties": 8134,
      "elihood": 8135,
      "ena": 8136,
      "ÑĢÐ¾Ðº": 8137,
      "Ġblog": 8138,
      "Ġ1997": 8139,
      "Ġdraft": 8140,
      "Ġpersist": 8141,
      "CD": 8142,
      "ptions": 8143,
      "Ġstream": 8144,
      "Ð¼ÐµÐ½ÑĤÐ°": 8145,
      "Ġcustomer": 8146,
      "Ġanat": 8147,
      "Ġstressed": 8148,
      "Ð¸Ð¼Ð¾": 8149,
      "Ġencouraging": 8150,
      "====": 8151,
      "$-": 8152,
      "Ġclothes": 8153,
      "Ġbaseball": 8154,
      "Ġsoul": 8155,
      "Ġ(\"": 8156,
      "ÑĢÐ°Ð²Ð¸": 8157,
      "Ġinvent": 8158,
      "Ġ45": 8159,
      "Ġske": 8160,
      "ĠSuch": 8161,
      "Ġcere": 8162,
      "omatic": 8163,
      "Ġthanks": 8164,
      "ĠProv": 8165,
      "Ġenforcement": 8166,
      "Ġtrig": 8167,
      "ĠJoe": 8168,
      "Ġherself": 8169,
      "Third": 8170,
      "Ġconversations": 8171,
      "ĠÑĢÐµÐ·ÑĥÐ»ÑĮÑĤÐ°": 8172,
      "Ġplenty": 8173,
      "ĠÐ°Ðº": 8174,
      "Ġcoronavirus": 8175,
      "gic": 8176,
      "Ð»Ð¾Ð¶": 8177,
      "rie": 8178,
      "ĠLong": 8179,
      "Ġmode": 8180,
      "Ġimagery": 8181,
      "ĠUkraine": 8182,
      "Ð¿Ð¸Ñģ": 8183,
      "aped": 8184,
      "Ġyouth": 8185,
      "ifies": 8186,
      "ghan": 8187,
      "Ġ1992": 8188,
      "Ġbiological": 8189,
      "Ġconvex": 8190,
      "IP": 8191,
      "Ð¼Ð¾ÑĤÑĢÐµ": 8192,
      "Ð¶ÐµÐ½Ð¸Ñı": 8193,
      "Ġconclude": 8194,
      "ĠMajor": 8195,
      "ĠMartin": 8196,
      "ĠÐ¿Ð¾Ð»ÑĥÑĩÐ¸": 8197,
      "ĠÑģÐ»Ð¾Ð²Ð°": 8198,
      "long": 8199,
      "ipping": 8200,
      "ĠExperim": 8201,
      "Ġwisdom": 8202,
      "ouds": 8203,
      "owa": 8204,
      "Ġcoal": 8205,
      "Ġencoder": 8206,
      "ĠÐ´ÐµÑıÑĤÐµÐ»ÑĮ": 8207,
      "ĠSwed": 8208,
      "Ġnarrative": 8209,
      "ĠCowboys": 8210,
      "Ð½Ð¸ÐµÐ¼": 8211,
      "ĠÐ¿ÑĢÐ¸Ð½Ñı": 8212,
      "Ġspectrum": 8213,
      "Ġbehaviors": 8214,
      "Ġtemporal": 8215,
      "Ġãģ": 8216,
      "Ġbomb": 8217,
      "agram": 8218,
      "ĠÐ²ÑĤÐ¾ÑĢ": 8219,
      "ÑĤÐ¾ÑĢÐ°": 8220,
      "Ġnegot": 8221,
      "Ġautonomous": 8222,
      "ners": 8223,
      "Ġhero": 8224,
      "Ġmeat": 8225,
      "Ġsettle": 8226,
      "Ġimplementing": 8227,
      "Ġadaptive": 8228,
      "semble": 8229,
      "Ġoutdoors": 8230,
      "Ġmere": 8231,
      "ÑģÑĤÐ²Ð¾Ð¼": 8232,
      "ĠAsia": 8233,
      "Ġevolve": 8234,
      "Ġtut": 8235,
      "inian": 8236,
      "ÐµÐ³Ð¾": 8237,
      "Ġcluster": 8238,
      "ĠÑĢÐ¾Ð´": 8239,
      "ĠLo": 8240,
      "nowned": 8241,
      "Ġflood": 8242,
      "ĠPennsylvania": 8243,
      "Ġyellow": 8244,
      "ayer": 8245,
      "ĠProp": 8246,
      "ÑģÑĤÐ²Ðµ": 8247,
      "Ġ1950": 8248,
      "Ġencouraged": 8249,
      "Ġtemperatures": 8250,
      "ĠMicrosoft": 8251,
      "bor": 8252,
      "Ġkitchen": 8253,
      "Ġpromise": 8254,
      "Ġportion": 8255,
      "Ġdistributions": 8256,
      "Ġphenomena": 8257,
      "illa": 8258,
      "iller": 8259,
      "Ġsuit": 8260,
      "ĠBefore": 8261,
      "uase": 8262,
      "ĠÑģÐ»Ðµ": 8263,
      "apter": 8264,
      "Ġvictims": 8265,
      "Ġbacteria": 8266,
      "ÑĥÐ½": 8267,
      "Ġsuperp": 8268,
      "Ġgenes": 8269,
      "Ġmarriage": 8270,
      "Ġvolum": 8271,
      "49": 8272,
      "ruption": 8273,
      "Ġinfluential": 8274,
      "CE": 8275,
      "CS": 8276,
      "Ġentered": 8277,
      "Ġdesigner": 8278,
      "ĠAdv": 8279,
      "Ġ1988": 8280,
      "Ġblow": 8281,
      "Ġreject": 8282,
      "ĠMethod": 8283,
      "Ġvoted": 8284,
      "Ġsurge": 8285,
      "Ġdiscipl": 8286,
      "Ġsupports": 8287,
      "ĠAny": 8288,
      "Ġlawyer": 8289,
      "Ġupdate": 8290,
      "ÑİÑīÐ¸Ñħ": 8291,
      ".[": 8292,
      "log": 8293,
      "Ġmarijuana": 8294,
      "Ġhousehold": 8295,
      "worth": 8296,
      "isa": 8297,
      "ifier": 8298,
      "Ġlets": 8299,
      "Ġdepart": 8300,
      "Ġpossess": 8301,
      "Ġpassage": 8302,
      "aying": 8303,
      "ĠDesign": 8304,
      "ĠLand": 8305,
      "Ġtradition": 8306,
      "ĠÐ½ÐµÐ¾Ð±ÑħÐ¾Ð´": 8307,
      "ĠIreland": 8308,
      "Ð²Ð°ÑĢ": 8309,
      "Ġreviews": 8310,
      "Ġoxygen": 8311,
      "writer": 8312,
      "Ġfan": 8313,
      "Ġhole": 8314,
      "Ġvit": 8315,
      "Ġvan": 8316,
      "uming": 8317,
      "aine": 8318,
      "Ġarbit": 8319,
      "ĠÐ¸Ð¼Ðµ": 8320,
      "Ġregression": 8321,
      "Ġgenerating": 8322,
      "Ġsuffer": 8323,
      "Ġdil": 8324,
      "Ġlean": 8325,
      "Ġarms": 8326,
      "Ġscores": 8327,
      "Ð¾Ð¶Ð´": 8328,
      "Ġsolely": 8329,
      "Ġstorage": 8330,
      "68": 8331,
      "igan": 8332,
      "Ġdisrupt": 8333,
      "Ġdiscussions": 8334,
      "Ġdescription": 8335,
      "Ġsubstantial": 8336,
      "ini": 8337,
      "uls": 8338,
      "ulum": 8339,
      "ĠHu": 8340,
      "Ġsignificance": 8341,
      "Ġrefuge": 8342,
      "Ġfiles": 8343,
      "Ġfacilities": 8344,
      "Ġassessment": 8345,
      "inator": 8346,
      "ĠHaw": 8347,
      "Ġcellphones": 8348,
      "Ġmuscle": 8349,
      "Ġalongside": 8350,
      "inois": 8351,
      "ĠLatin": 8352,
      "Ġmetrics": 8353,
      "ĠFederal": 8354,
      "eck": 8355,
      "Ġfilter": 8356,
      "Ġtargets": 8357,
      "ĠÑĩÐµÐ»Ð¾Ð²Ðµ": 8358,
      "trans": 8359,
      "ĠÐ¿ÑĢÐ¾Ð¸Ð·Ð²Ð¾Ð´": 8360,
      "ĠJersey": 8361,
      "ĠOhio": 8362,
      "Born": 8363,
      "fol": 8364,
      "Ġdu": 8365,
      "Ġdocuments": 8366,
      "ĠÑģÑĤÑĢÐ°Ð½Ñĭ": 8367,
      "ĠSaturday": 8368,
      "ĠTake": 8369,
      "ĠLiber": 8370,
      "Additionally": 8371,
      "Ġpartnership": 8372,
      "Ġiterative": 8373,
      "Ġends": 8374,
      "Ġobservations": 8375,
      "43": 8376,
      "Ġnorthern": 8377,
      "ĠIraq": 8378,
      "ĠPac": 8379,
      "achus": 8380,
      "Ð³Ð¾Ð²": 8381,
      "Ġexpenses": 8382,
      "Ġinspiration": 8383,
      "mas": 8384,
      "top": 8385,
      "etts": 8386,
      "rain": 8387,
      "ÐºÐ°Ð½": 8388,
      "Ġuncom": 8389,
      "ĠÐ°ÑĢ": 8390,
      "Ġsale": 8391,
      "Ġcontrols": 8392,
      "Ġflows": 8393,
      "Ġexcess": 8394,
      "Ġactively": 8395,
      "Ġsaving": 8396,
      "Ġinstant": 8397,
      "Ġmovements": 8398,
      "Ġ95": 8399,
      "ĠBrazil": 8400,
      "Ġsizes": 8401,
      "Ġnative": 8402,
      "teen": 8403,
      "Ġpreval": 8404,
      "ĠÐ¼Ð¾Ð¶Ð½Ð¾": 8405,
      "Ġvulnerable": 8406,
      "aid": 8407,
      "Ġwise": 8408,
      "Ġsatell": 8409,
      "Ġarrested": 8410,
      "ĠÑĥÑĤÐ²ÐµÑĢ": 8411,
      "05": 8412,
      "orous": 8413,
      "ola": 8414,
      "ĠBank": 8415,
      "Ġpert": 8416,
      "ĠÐ³Ð´Ðµ": 8417,
      "Ġdrawing": 8418,
      "ochastic": 8419,
      "http": 8420,
      "ulf": 8421,
      "fl": 8422,
      "Ġliver": 8423,
      "ĠHave": 8424,
      "ideo": 8425,
      "Ġthank": 8426,
      "Ġindustrial": 8427,
      "Ġshaping": 8428,
      "\")": 8429,
      "Ġfant": 8430,
      "Ġrenowned": 8431,
      "ĠEp": 8432,
      "space": 8433,
      "ĠÐŀÐ±": 8434,
      "Ġemerging": 8435,
      "Ġestimates": 8436,
      "ĠMcC": 8437,
      "Ġcryst": 8438,
      "ĠRepresentatives": 8439,
      "ĠWindows": 8440,
      "Ġrealistic": 8441,
      "Ġcoupled": 8442,
      "Ġnoticed": 8443,
      "ĠUN": 8444,
      "Ġapparent": 8445,
      "Ġattitudes": 8446,
      "ĠDivision": 8447,
      ".'": 8448,
      "ãĥ": 8449,
      "atre": 8450,
      "ĠJones": 8451,
      "ĠÐĲÐ»ÐµÐºÑģ": 8452,
      "ackson": 8453,
      "Ġadministr": 8454,
      "Ġsector": 8455,
      "ĠPak": 8456,
      "ĠRead": 8457,
      "Ġregulations": 8458,
      "Ġentropy": 8459,
      "Ġroutine": 8460,
      "Ġacquired": 8461,
      "uilding": 8462,
      "ora": 8463,
      "Ġhob": 8464,
      "ĠSearch": 8465,
      "Ġvocal": 8466,
      "ĠLead": 8467,
      "ÑĢÐ¸Ð¸": 8468,
      "Ġconfig": 8469,
      "Ġtreatments": 8470,
      "=\"": 8471,
      "ĠEU": 8472,
      "Ġforever": 8473,
      "ĠÐ¿ÑĢÐµÐ´Ð¾": 8474,
      "ĠJim": 8475,
      "Ġrecover": 8476,
      "they": 8477,
      "ĠÐĿÐ¾Ð²": 8478,
      "Ġimmigration": 8479,
      "Ġcup": 8480,
      "ingly": 8481,
      "Ġuniform": 8482,
      "ĠStep": 8483,
      "ario": 8484,
      "Ġmedium": 8485,
      "Ġ1996": 8486,
      "Ġhonor": 8487,
      "ĠJoseph": 8488,
      "ĠMur": 8489,
      "Ġpresidency": 8490,
      "Ġstructured": 8491,
      "Ġtexture": 8492,
      "Ġdoubt": 8493,
      "ĠAP": 8494,
      "Ġclim": 8495,
      "Ġaccused": 8496,
      "iana": 8497,
      "Ġdistricts": 8498,
      "Ġconcerning": 8499,
      "ĠCam": 8500,
      "ĠChief": 8501,
      "Ġrising": 8502,
      "Ġstick": 8503,
      "agon": 8504,
      "Ġblocks": 8505,
      "Ġ1999": 8506,
      "ye": 8507,
      "Ð²Ð°Ð»Ð¸": 8508,
      "ĠRet": 8509,
      "ĠNFL": 8510,
      "ĠLast": 8511,
      "Ġremoved": 8512,
      "ĠÑıÐ²Ð»ÑıÐµÑĤÑģÑı": 8513,
      "Ġmorph": 8514,
      "eterm": 8515,
      "Ġplanned": 8516,
      "Ġowned": 8517,
      "ÐŀÐ±": 8518,
      "ĠÐ²ÑĭÑģ": 8519,
      "ĠÐ¾Ð±ÑĢÐ°Ð·Ð¾Ð²Ð°Ð½Ð¸Ñı": 8520,
      "ĠÐ¾Ð±ÐµÑģÐ¿ÐµÑĩ": 8521,
      "Ġunion": 8522,
      "Ġmagazine": 8523,
      "Ġvisitors": 8524,
      "Ġhighlighted": 8525,
      "Ð¸Ð½Ð°Ð½": 8526,
      "SP": 8527,
      "ÑĢÐ°Ð²": 8528,
      "ailure": 8529,
      "Ġreputation": 8530,
      "ĠSil": 8531,
      "ĠColor": 8532,
      "Ġaircraft": 8533,
      "Ġcontroversial": 8534,
      "Ġvenus": 8535,
      "Ġproducer": 8536,
      "Ġroute": 8537,
      "da": 8538,
      "ĠÐ¿Ð¾Ð¿": 8539,
      "Ġnoisy": 8540,
      "ĠViet": 8541,
      "Ġdevast": 8542,
      "Ġspectral": 8543,
      "Ġdefinition": 8544,
      "Ð³Ð¾Ð´Ð½Ñı": 8545,
      "ĠSov": 8546,
      "ĠFre": 8547,
      "abs": 8548,
      "ava": 8549,
      "Ġampl": 8550,
      "Ġhandling": 8551,
      "Ġhybrid": 8552,
      "Ġsynthes": 8553,
      "ĠBook": 8554,
      "ĠEnd": 8555,
      "ĠVol": 8556,
      "Ġintervention": 8557,
      "Ġauthent": 8558,
      "Ġvisible": 8559,
      "ĠOnly": 8560,
      "Ġinjured": 8561,
      "Ġconvenient": 8562,
      "Ġintricate": 8563,
      "ĠChild": 8564,
      "Ġeducated": 8565,
      "ĠConv": 8566,
      "ĠÐ·Ð°ÐºÐ¾Ð½": 8567,
      "ĠSecurity": 8568,
      "ĠHillary": 8569,
      "war": 8570,
      "rep": 8571,
      "Ġresid": 8572,
      "Ð¿ÐµÑĢ": 8573,
      "Ġdiscussing": 8574,
      "Ġtiny": 8575,
      "Ġsouthern": 8576,
      "Ġbunch": 8577,
      "Ð½Ð¾Ð²Ð°": 8578,
      "ÐµÐ½Ð¾": 8579,
      "ĠÐ³Ð¾Ð»": 8580,
      "ĠBritain": 8581,
      "Ġwebsites": 8582,
      "ĠÐ¿ÑĢÐ°Ð²": 8583,
      "Ġcards": 8584,
      "Ġsubs": 8585,
      "Ġgenus": 8586,
      "Ġbelieves": 8587,
      "gressive": 8588,
      "ĠÐ¾ÑĢÐ³Ð°Ð½Ð¸Ð·Ð°": 8589,
      "EL": 8590,
      "itu": 8591,
      "Ġrepresenting": 8592,
      "ÐŁÐ¾": 8593,
      "Ġharmful": 8594,
      "Ġdimensions": 8595,
      "ĠJewish": 8596,
      "ocy": 8597,
      "ĠRock": 8598,
      "Ġdetermining": 8599,
      "Ġ1976": 8600,
      "ĠEducation": 8601,
      "achusetts": 8602,
      "Ġlights": 8603,
      "ifer": 8604,
      "ective": 8605,
      "Ġdiss": 8606,
      "ĠÐ´ÐµÑĤ": 8607,
      "Ġsensors": 8608,
      "Ġinjuries": 8609,
      "ĠÑģÑĤÐ°ÑĤÑĮ": 8610,
      "kins": 8611,
      "Ġvess": 8612,
      "Ġlearns": 8613,
      "Ð³Ð¾ÑĢ": 8614,
      "ĠAfghan": 8615,
      "Ġcognitive": 8616,
      "oving": 8617,
      "Ġsight": 8618,
      "ribe": 8619,
      "ĠClub": 8620,
      "Ġstyles": 8621,
      "97": 8622,
      "Ġcos": 8623,
      "Ġfeaturing": 8624,
      "Ġencoun": 8625,
      "ĠStudies": 8626,
      "Ġpulled": 8627,
      "Ġrestrictions": 8628,
      "ĠÐ²ÐµÐ´": 8629,
      "Ġincumbent": 8630,
      "ĠModel": 8631,
      "Ġretirement": 8632,
      "Ġlaugh": 8633,
      "Ġweigh": 8634,
      "riz": 8635,
      "Ġfees": 8636,
      "ĠÐ³ÑĢÑĥÐ¿": 8637,
      "Ġownership": 8638,
      "Ġtransact": 8639,
      "Ġescape": 8640,
      "ĠFrancisco": 8641,
      "ĠIllinois": 8642,
      "Ġdescent": 8643,
      "Ġoperate": 8644,
      "Ġstruggles": 8645,
      "Ġhouses": 8646,
      "Ġphilosophy": 8647,
      "iking": 8648,
      "Ð¼Ð¾": 8649,
      "Ġconscious": 8650,
      "Ġchildhood": 8651,
      "Ġdimension": 8652,
      "Ġmitig": 8653,
      "icul": 8654,
      "Ġgrown": 8655,
      "Ġupper": 8656,
      "Ġju": 8657,
      "ĠÐºÐ¾": 8658,
      "iano": 8659,
      "ĠÐ£ÐºÑĢÐ°": 8660,
      "Ġshaped": 8661,
      "Ġeager": 8662,
      "Ġplastic": 8663,
      "Ġimproves": 8664,
      "ÑĤÐ¸Ðµ": 8665,
      "Ġintroducing": 8666,
      "DF": 8667,
      "ĪĴ": 8668,
      "Ġsought": 8669,
      "Ġmixt": 8670,
      "Ġcolumn": 8671,
      "Ġsupporters": 8672,
      "Ġregularization": 8673,
      "Ġmountain": 8674,
      "Ġlikes": 8675,
      "Ġsacr": 8676,
      "Ġunderstood": 8677,
      "inet": 8678,
      "Ġeverywhere": 8679,
      "Ġreduces": 8680,
      "ÑĩÐ¸ÑĤÐ°": 8681,
      "Ġjoining": 8682,
      "Ġsurvival": 8683,
      "ĠMassachusetts": 8684,
      "alled": 8685,
      "197": 8686,
      "Ġorigin": 8687,
      "Ġsynthetic": 8688,
      "Technology": 8689,
      "ĠNavy": 8690,
      "ĠEmpire": 8691,
      "Ġpump": 8692,
      "Ġmine": 8693,
      "ĠWomen": 8694,
      "Ġsharp": 8695,
      "Ġempt": 8696,
      "ĠAnalysis": 8697,
      "ĠConf": 8698,
      "Ġindependently": 8699,
      "Ġpil": 8700,
      "Ġusual": 8701,
      "Ġreflection": 8702,
      "uits": 8703,
      "ĠTest": 8704,
      "ĠBob": 8705,
      "ĠÐ²Ð½Ðµ": 8706,
      "ĠVis": 8707,
      "ibl": 8708,
      "Ġinvesting": 8709,
      "Ġcalm": 8710,
      "mitted": 8711,
      "School": 8712,
      "Ġperception": 8713,
      "Ð»Ð°Ð´Ð¸": 8714,
      "Ġversus": 8715,
      "net": 8716,
      "Ġrelying": 8717,
      "ĠLook": 8718,
      "Ġwhenever": 8719,
      "Ġarmy": 8720,
      "Ġmodes": 8721,
      "Ġpayment": 8722,
      "Ġletting": 8723,
      "Ġlegislation": 8724,
      "ĠÑģÐºÐ°Ð·Ð°Ð»": 8725,
      "Ġech": 8726,
      "Ġmanaging": 8727,
      "Ġphysically": 8728,
      "Ġisolated": 8729,
      "55": 8730,
      "IL": 8731,
      "ĠCivil": 8732,
      "ĠBur": 8733,
      "Ġdoors": 8734,
      "Ġclar": 8735,
      "ĠEconom": 8736,
      "abet": 8737,
      "Ġthereby": 8738,
      "ĠSpace": 8739,
      "Ġ1978": 8740,
      "ĠUSA": 8741,
      "Ġsweet": 8742,
      "Ġpreferences": 8743,
      "dec": 8744,
      "Ġbot": 8745,
      "Ġnations": 8746,
      "ĠAdd": 8747,
      "Ġgraduation": 8748,
      "Ġsatisfaction": 8749,
      "ĠCharles": 8750,
      "rogen": 8751,
      "Ð²Ð¾Ð»": 8752,
      "through": 8753,
      "Ġquiz": 8754,
      "ĠForce": 8755,
      "Ġlock": 8756,
      "Ġextracted": 8757,
      "Ġoverwhelming": 8758,
      "ita": 8759,
      "ÐµÑĤÐµ": 8760,
      "Ġdoctors": 8761,
      "ĠÐ¸ÑģÑĤÐ¾ÑĢ": 8762,
      "Ġproducing": 8763,
      "Ġglimp": 8764,
      "Ġseriously": 8765,
      "ashes": 8766,
      "vey": 8767,
      "ĠBern": 8768,
      "Ġpeak": 8769,
      "Ġclothing": 8770,
      "Ð²Ð°ÐµÑĤ": 8771,
      "Ġmessages": 8772,
      "Ð½Ð¾Ð¼Ñĥ": 8773,
      "Ġapartment": 8774,
      "Ġconsumers": 8775,
      "Ġpenal": 8776,
      "ĠOffice": 8777,
      "Ġexplanation": 8778,
      "Ġglimpse": 8779,
      "bing": 8780,
      "zen": 8781,
      "ĠFBI": 8782,
      "Ġguard": 8783,
      "):": 8784,
      "word": 8785,
      "Ġdust": 8786,
      "ĠTal": 8787,
      "ails": 8788,
      "iams": 8789,
      "person": 8790,
      "Ġhardware": 8791,
      "ĠDevelop": 8792,
      "ĠÑĤÐµÐ¼": 8793,
      "Ġbecuase": 8794,
      "Ġtheme": 8795,
      "Ġuns": 8796,
      "Ġhoriz": 8797,
      "Mr": 8798,
      "Yes": 8799,
      "heast": 8800,
      "ÑĤÑģÑı": 8801,
      "ostic": 8802,
      "Ġdemocratic": 8803,
      "Ġcaptiv": 8804,
      "Ġtargeted": 8805,
      "bration": 8806,
      "ĠÐ¿Ð¸": 8807,
      "Ġinterf": 8808,
      "Ġissued": 8809,
      "Ġprofit": 8810,
      "ĠAdm": 8811,
      "ĠÐ¿ÑĢÐµÐ´ÑģÑĤÐ°Ð²Ð¸": 8812,
      "Ġsensor": 8813,
      "ĠRecords": 8814,
      "ĠPakistan": 8815,
      "Ġgaining": 8816,
      "Ġalive": 8817,
      "ĠCy": 8818,
      "Ġintense": 8819,
      "Ġtopological": 8820,
      "Ġregularly": 8821,
      "ventions": 8822,
      "gent": 8823,
      "Ġpure": 8824,
      "ani": 8825,
      "Ġnerv": 8826,
      "ĠCapt": 8827,
      "istant": 8828,
      "Ġdefend": 8829,
      "Ġsuffering": 8830,
      "$.": 8831,
      "Ġfort": 8832,
      "ĠAD": 8833,
      "Ġsugar": 8834,
      "ĠÐ²Ð¾ÑĤ": 8835,
      "Ġgrapp": 8836,
      "Ġextension": 8837,
      "ÑģÑĤÐ°Ð²Ð»": 8838,
      "ĠÐŀÐ½": 8839,
      "ĠÐ¾ÑģÑĥÑīÐµÑģÑĤÐ²": 8840,
      "prene": 8841,
      "ĠIslamic": 8842,
      "Ġtherapeutic": 8843,
      "een": 8844,
      "Ġwire": 8845,
      "ĠÐ½ÐµÑģÐº": 8846,
      "Ð°Ð»ÑĮÐ½Ð¾Ð³Ð¾": 8847,
      "Ġlosses": 8848,
      "Ġpraise": 8849,
      "AA": 8850,
      "Ġbare": 8851,
      "Ġstochastic": 8852,
      "Ġeastern": 8853,
      "ĠÐ´Ð¾Ð¼Ð°": 8854,
      "Ġsurfaces": 8855,
      "nic": 8856,
      "ĠSummer": 8857,
      "Ġkick": 8858,
      "ĠAlbert": 8859,
      "Ġpowers": 8860,
      "Ġalleged": 8861,
      "ĠTim": 8862,
      "Ġdisorder": 8863,
      "Ð°Ð»Ðµ": 8864,
      "Ġdiscusses": 8865,
      "ĠÐ½Ð°ÑģÐµÐ»ÐµÐ½Ð¸Ñı": 8866,
      "ĠSet": 8867,
      "ĠFort": 8868,
      "Ġring": 8869,
      "icken": 8870,
      "tw": 8871,
      "uan": 8872,
      "Ġfill": 8873,
      "Ġunpre": 8874,
      "Ġtap": 8875,
      "Ġconstructed": 8876,
      "Sincerely": 8877,
      "ĠSoviet": 8878,
      "reprene": 8879,
      "erves": 8880,
      "Ġnet": 8881,
      "ĠHarris": 8882,
      "Ġidentification": 8883,
      "ĠÐ»Ð¸ÑĨ": 8884,
      "Ġemphasized": 8885,
      "Ð¨ÐĲ": 8886,
      "riverless": 8887,
      "Ġfold": 8888,
      "Ġinitiatives": 8889,
      "Ð¾Ñħ": 8890,
      "ĠCath": 8891,
      "ĠUnfortunately": 8892,
      "brane": 8893,
      "ĠOrgan": 8894,
      "Ġprocedures": 8895,
      "ĠIowa": 8896,
      "amber": 8897,
      "ĠOper": 8898,
      "luding": 8899,
      "Ġauthority": 8900,
      "Ġmissed": 8901,
      "Ġoneself": 8902,
      "Ġsan": 8903,
      "igious": 8904,
      "Ġsuggesting": 8905,
      "Ġstrengthen": 8906,
      "Ġindicating": 8907,
      "ĠÑĢÐµÐ°Ð»Ð¸Ð·Ð°ÑĨÐ¸Ð¸": 8908,
      "Ġheter": 8909,
      "Ġrow": 8910,
      "segmentation": 8911,
      "ĠĠĠĠĠ": 8912,
      "achel": 8913,
      "Ġcovers": 8914,
      "Ġconsumption": 8915,
      "Ð¸ÑĤÐµÐ»ÐµÐ¹": 8916,
      "Ġdimensional": 8917,
      "Ġorg": 8918,
      "Ġarise": 8919,
      "Ġdifferently": 8920,
      "haust": 8921,
      "Bl": 8922,
      "Ġbought": 8923,
      "Ġtwe": 8924,
      "ĠJackson": 8925,
      "Ġchest": 8926,
      "ĠÐ¿Ð¾Ð¼Ð¾": 8927,
      "Ġfifth": 8928,
      "Ð¥": 8929,
      "Ġsometime": 8930,
      "Ġincredible": 8931,
      "ishes": 8932,
      "Ġinner": 8933,
      "otype": 8934,
      "add": 8935,
      "ĠPower": 8936,
      "ockey": 8937,
      "Ġspac": 8938,
      "Ġsimulations": 8939,
      "Ġpracticing": 8940,
      "Ġ1993": 8941,
      "Ġteenager": 8942,
      "Ġagencies": 8943,
      "Ġpreserving": 8944,
      "........": 8945,
      "Ġbroadcast": 8946,
      "Ġdisappoint": 8947,
      "Ġnone": 8948,
      "ymph": 8949,
      "def": 8950,
      "âĢĲ": 8951,
      "Ġadequ": 8952,
      "Ġresident": 8953,
      "ĊĊĊ": 8954,
      "Ġfriendly": 8955,
      "apping": 8956,
      "Ġbonds": 8957,
      "ĠVictor": 8958,
      "gram": 8959,
      "run": 8960,
      "Ġ32": 8961,
      "everal": 8962,
      "Ġminute": 8963,
      "Ġdomestic": 8964,
      "Ġnaturally": 8965,
      "Ġflowers": 8966,
      "Ġvoices": 8967,
      "(\\": 8968,
      "John": 8969,
      "Ð°ÑĢÐ°": 8970,
      "Ġcenters": 8971,
      "ĠMot": 8972,
      "ĠPlus": 8973,
      "ĠÐ¾Ð´Ð¸Ð½": 8974,
      "ÑĨÐµÐ²": 8975,
      "Ġangry": 8976,
      "Ġundersc": 8977,
      "lectric": 8978,
      "Ġextent": 8979,
      "Ġpathways": 8980,
      "Ġoverwhelmed": 8981,
      "Ġschedul": 8982,
      "ĠCruz": 8983,
      "Tube": 8984,
      "isted": 8985,
      "Ġdogs": 8986,
      "ĠÐ´Ð°Ð¶Ðµ": 8987,
      "ĠÑĥÑĩÐ°ÑģÑĤÐ¸": 8988,
      "Ġmac": 8989,
      "ione": 8990,
      "Ġveter": 8991,
      "Ġbiomedical": 8992,
      "agnetic": 8993,
      "Ġchannels": 8994,
      "vin": 8995,
      "Ð»ÐµÑĤ": 8996,
      "Ġshit": 8997,
      "ĠBattle": 8998,
      "ĠPos": 8999,
      "Ġfeas": 9000,
      "Ġacknowled": 9001,
      "MA": 9002,
      "Ġaer": 9003,
      "Ġmir": 9004,
      "ĠÐ½ÐµÑĤ": 9005,
      "Ġcomplexities": 9006,
      "ih": 9007,
      "Ġgro": 9008,
      "ĠKh": 9009,
      "Ġframes": 9010,
      "Ġaccomplished": 9011,
      "Ġrequirement": 9012,
      "Ġappearances": 9013,
      "Let": 9014,
      "Ġbills": 9015,
      "Ġstone": 9016,
      "Ġexplos": 9017,
      "Ġ1994": 9018,
      "Ġachievements": 9019,
      "Ġinterpretation": 9020,
      "Ġlaser": 9021,
      "ait": 9022,
      "ĠSouthern": 9023,
      "Ġelectrical": 9024,
      "Ġinstitution": 9025,
      "ÑīÐµÐµ": 9026,
      "ĠTeachers": 9027,
      "cul": 9028,
      "uis": 9029,
      "Ġda": 9030,
      "verty": 9031,
      "Ð´ÐµÑĤ": 9032,
      "rip": 9033,
      "Ġpoverty": 9034,
      "Ġcenturies": 9035,
      "ĠÐ¿ÑĢÐµÐ·Ð¸Ð´": 9036,
      "CNNs": 9037,
      "Ġmurder": 9038,
      "erb": 9039,
      "also": 9040,
      "Ġowners": 9041,
      "Ġreactions": 9042,
      "Ġresolve": 9043,
      "ĠÑģÑĤÑĢÐ¾Ð¸ÑĤÐµÐ»ÑĮ": 9044,
      "SA": 9045,
      "ivery": 9046,
      "uous": 9047,
      "Ġproceed": 9048,
      "Ð»Ð¾ÑģÑĮ": 9049,
      "ĠHy": 9050,
      "ĠPeter": 9051,
      "Ġrepresentative": 9052,
      "ĠGovernment": 9053,
      ".-": 9054,
      "FC": 9055,
      "MP": 9056,
      "Qu": 9057,
      "rant": 9058,
      "Ġwins": 9059,
      "icide": 9060,
      "ĠMax": 9061,
      "Ġdisput": 9062,
      "ĠExp": 9063,
      "Ġremarkable": 9064,
      "Ġstark": 9065,
      "Ġcounts": 9066,
      "Ġdemocracy": 9067,
      "ĠÐ¶Ð¸Ð²": 9068,
      "Ġintegral": 9069,
      "Ġcuts": 9070,
      "Ġarrived": 9071,
      "Ġcontroversy": 9072,
      "isters": 9073,
      "ÑģÐ»Ñĥ": 9074,
      "riers": 9075,
      "Ġinvestments": 9076,
      "ĠÐ´ÐµÐ»Ð°": 9077,
      "Ġclusters": 9078,
      "Ġinstances": 9079,
      "Ġcurrency": 9080,
      "Ġexamines": 9081,
      "ĠOnline": 9082,
      "Ð»ÑİÑĩ": 9083,
      "Ġbathroom": 9084,
      "iology": 9085,
      "Ð¾ÑĤÐµ": 9086,
      "opic": 9087,
      "Ġabuse": 9088,
      "Ġapps": 9089,
      "Ġbroke": 9090,
      "ĠÐ¾ÐºÐ¾Ð»Ð¾": 9091,
      "42": 9092,
      "flow": 9093,
      "Ġwestern": 9094,
      "ĠCases": 9095,
      "ads": 9096,
      "Ġclouds": 9097,
      "Ġunp": 9098,
      "Ð±Ñĥ": 9099,
      "Ġregul": 9100,
      "Ġsolo": 9101,
      "Ġrequest": 9102,
      "ĠConnect": 9103,
      "Ġenhanced": 9104,
      "because": 9105,
      "car": 9106,
      "Ġchronic": 9107,
      "Ġdish": 9108,
      "ĠÐ¼ÐµÑĤ": 9109,
      "Ġeducators": 9110,
      "Ġminister": 9111,
      "Ġlabeling": 9112,
      "ĠÑįÐºÐ¾Ð½Ð¾Ð¼Ð¸": 9113,
      "Ġpy": 9114,
      "stone": 9115,
      "ĠCr": 9116,
      "Ġtechnological": 9117,
      "ĠScot": 9118,
      "Ġforest": 9119,
      "Ġreturns": 9120,
      "Image": 9121,
      "makers": 9122,
      "Ġwarn": 9123,
      "ĠHot": 9124,
      "ĠSpain": 9125,
      "ĠImp": 9126,
      "Working": 9127,
      "Ġpiv": 9128,
      "Ġphr": 9129,
      "ĠKey": 9130,
      "marks": 9131,
      "name": 9132,
      "ĠÐ¦": 9133,
      "iders": 9134,
      "ĠMobile": 9135,
      "Ġscream": 9136,
      "Ġshed": 9137,
[...]
